▁xxunk	0
▁xxpad	0
▁xxbos	0
▁xxeos	0
▁xxfld	0
▁xxrep	0
▁xxwrep	0
▁xxup	0
▁xxmaj	0
<unk>	0
▁the	-3.34323
.	-3.35941
,	-3.43971
s	-3.56557
▁a	-3.87592
▁and	-3.9777
▁of	-4.03692
▁to	-4.08153
'	-4.18367
▁is	-4.34159
br	-4.38013
▁/>	-4.40892
<	-4.45442
▁in	-4.49589
▁I	-4.62596
▁it	-4.63429
▁that	-4.77219
▁this	-4.89056
t	-4.9252
▁	-5.07107
▁was	-5.08928
▁movie	-5.16565
-	-5.17607
ing	-5.1821
▁for	-5.23428
▁with	-5.23453
▁film	-5.2652
▁as	-5.35116
ed	-5.39063
▁The	-5.42883
▁but	-5.47367
▁on	-5.4891
ly	-5.50283
▁(	-5.56081
▁"	-5.57849
▁you	-5.58043
▁be	-5.58285
▁are	-5.61915
d	-5.65303
▁have	-5.68636
▁his	-5.68754
▁not	-5.69815
▁one	-5.77115
▁he	-5.81712
"	-5.83426
▁by	-5.91285
▁who	-5.91473
▁an	-5.94612
▁all	-5.95824
▁like	-5.97031
)	-5.98156
y	-5.98524
▁at	-6.00432
▁from	-6.01373
e	-6.02687
▁so	-6.04429
▁they	-6.07745
▁out	-6.1012
▁has	-6.17305
▁about	-6.18672
▁It	-6.18818
▁or	-6.18853
▁her	-6.20301
▁just	-6.21507
▁good	-6.29735
▁can	-6.3234
▁some	-6.32363
▁more	-6.38359
▁This	-6.39066
▁would	-6.39454
n	-6.40825
▁up	-6.42703
!	-6.43505
▁what	-6.45979
?	-6.46128
▁very	-6.46204
m	-6.47776
▁time	-6.48671
The	-6.49854
er	-6.50623
▁there	-6.50631
▁me	-6.52556
▁when	-6.52974
▁really	-6.55019
▁no	-6.55521
▁story	-6.5556
▁their	-6.56226
▁she	-6.57954
▁had	-6.59103
▁even	-6.60482
a	-6.62106
▁were	-6.62988
▁if	-6.63122
▁see	-6.63599
▁much	-6.65493
▁only	-6.66407
▁than	-6.67442
▁A	-6.67654
▁get	-6.69496
▁which	-6.70418
I	-6.70432
...	-6.72483
▁my	-6.75866
▁into	-6.76209
▁him	-6.76374
▁-	-6.77452
▁been	-6.78475
▁do	-6.78562
▁other	-6.79011
▁well	-6.8224
▁people	-6.83242
▁first	-6.84827
▁way	-6.8486
▁great	-6.853
▁we	-6.8601
▁bad	-6.86234
▁because	-6.88592
▁will	-6.90373
:	-6.91595
▁don	-6.91619
▁too	-6.92478
▁make	-6.92895
▁made	-6.94621
▁how	-6.94803
re	-6.95542
▁could	-6.95832
▁think	-6.96728
r	-6.96767
▁also	-6.96917
ve	-6.97191
▁any	-6.97431
▁over	-6.98293
es	-7.00416
▁character	-7.00792
▁them	-7.02458
▁most	-7.03247
▁being	-7.06087
▁plot	-7.0625
▁characters	-7.07786
▁watch	-7.09003
▁know	-7.09197
▁never	-7.10047
▁where	-7.10082
▁seen	-7.10732
▁many	-7.13206
;	-7.13836
o	-7.14221
▁two	-7.14482
▁off	-7.15457
▁acting	-7.15498
▁after	-7.16235
).	-7.17587
▁movies	-7.20017
i	-7.20578
▁ever	-7.208
▁little	-7.21867
▁then	-7.22346
▁scene	-7.22556
▁He	-7.23484
▁love	-7.23659
▁show	-7.23982
▁But	-7.24604
▁man	-7.25228
▁end	-7.25526
ll	-7.25586
▁better	-7.2592
▁And	-7.26194
▁life	-7.26394
in	-7.2677
or	-7.26925
▁did	-7.27214
▁should	-7.28102
p	-7.2867
▁films	-7.29876
▁does	-7.30082
▁best	-7.30145
▁'	-7.30433
▁S	-7.32124
▁your	-7.32952
al	-7.33215
▁find	-7.3364
▁lot	-7.34087
A	-7.34435
▁<	-7.34556
▁something	-7.36897
▁back	-7.36917
▁its	-7.37248
▁say	-7.37325
▁i	-7.37786
▁go	-7.40369
),	-7.40536
▁real	-7.41751
/	-7.4271
▁In	-7.43046
▁scenes	-7.43857
▁here	-7.44119
▁thing	-7.44306
l	-7.44318
c	-7.444
▁There	-7.45319
▁through	-7.45612
S	-7.46752
and	-7.47309
▁watching	-7.49444
ic	-7.49566
▁actually	-7.50186
▁such	-7.50448
▁years	-7.50582
▁still	-7.51689
▁If	-7.52828
▁same	-7.52947
▁those	-7.53904
▁didn	-7.55106
▁part	-7.5514
▁funny	-7.56187
g	-7.56312
▁going	-7.56828
▁look	-7.5733
u	-7.57571
▁us	-7.57934
en	-7.58258
▁young	-7.58421
▁thought	-7.58706
▁doesn	-7.58717
▁actors	-7.59207
▁work	-7.59424
b	-7.59902
▁want	-7.6033
▁makes	-7.60545
▁old	-7.61519
▁these	-7.61926
▁around	-7.6224
▁director	-7.62243
▁pretty	-7.62589
on	-7.63503
▁few	-7.63999
▁again	-7.64662
▁why	-7.65808
an	-7.66038
▁un	-7.66151
▁got	-7.67841
▁action	-7.67876
the	-7.68289
▁though	-7.68778
▁T	-7.68794
▁re	-7.69115
▁enough	-7.69826
▁fact	-7.69847
▁down	-7.70587
▁before	-7.70965
it	-7.71084
▁kind	-7.72102
▁B	-7.72372
▁another	-7.73146
▁take	-7.73805
k	-7.74395
▁give	-7.74614
▁point	-7.74794
▁seems	-7.75039
▁long	-7.75924
▁nothing	-7.76032
▁cast	-7.76659
▁both	-7.77417
▁script	-7.78051
▁bit	-7.78121
▁You	-7.78228
▁hard	-7.78354
▁own	-7.79219
le	-7.79442
&	-7.79675
▁role	-7.79774
▁things	-7.80777
▁while	-7.80952
▁whole	-7.82041
▁between	-7.82191
▁series	-7.82233
▁must	-7.83089
▁now	-7.84021
▁may	-7.84363
▁girl	-7.84593
▁come	-7.84726
able	-7.84864
▁every	-7.85217
▁world	-7.85237
▁right	-7.85324
▁high	-7.86387
▁saw	-7.86542
▁quite	-7.86546
--	-7.86898
▁C	-7.87592
▁interesting	-7.88103
▁anything	-7.8832
▁comedy	-7.88805
▁What	-7.88926
se	-7.89397
▁always	-7.89683
▁horror	-7.89745
▁family	-7.90152
▁isn	-7.90176
ar	-7.9023
▁They	-7.91324
ie	-7.92131
▁big	-7.92145
D	-7.92415
▁last	-7.92483
▁performance	-7.92486
▁found	-7.9294
▁almost	-7.92965
▁new	-7.93047
▁She	-7.93075
▁fun	-7.93507
▁might	-7.94373
▁minutes	-7.94464
f	-7.94676
▁P	-7.95072
▁guy	-7.9544
ce	-7.95541
▁put	-7.95572
▁become	-7.95941
▁far	-7.9602
▁feel	-7.96355
h	-7.96887
▁done	-7.97562
▁without	-7.98508
▁least	-7.98782
▁ending	-7.99508
st	-7.99805
▁woman	-8.00313
▁away	-8.00992
▁times	-8.01307
▁sense	-8.01333
th	-8.01363
▁E	-8.01624
▁worst	-8.02352
▁original	-8.02416
▁So	-8.02598
▁believe	-8.03099
▁money	-8.03399
▁played	-8.04408
▁gets	-8.04613
This	-8.04896
▁turn	-8.04956
ion	-8.05888
▁TV	-8.06098
T	-8.06204
▁different	-8.0715
man	-8.07203
▁F	-8.07586
▁tell	-8.07672
▁yet	-8.07688
el	-8.08068
B	-8.08116
▁2	-8.08198
ity	-8.08331
ation	-8.08452
▁We	-8.08765
▁worth	-8.09092
ers	-8.09239
▁rather	-8.09349
▁effects	-8.09521
▁sure	-8.10085
▁O	-8.10211
▁since	-8.10392
▁reason	-8.10425
▁main	-8.10623
is	-8.10952
ur	-8.11058
▁someone	-8.11162
▁anyone	-8.1224
▁our	-8.12867
▁As	-8.13113
▁music	-8.13269
te	-8.13599
▁book	-8.13734
ness	-8.14769
▁place	-8.1487
▁trying	-8.1546
▁goes	-8.15874
▁special	-8.16088
▁course	-8.16263
▁said	-8.16266
▁That	-8.16391
▁day	-8.16541
M	-8.16786
▁each	-8.16901
▁plays	-8.17208
▁looking	-8.17369
▁everything	-8.17475
▁death	-8.17478
as	-8.18063
▁play	-8.19076
▁else	-8.19291
▁de	-8.19925
▁am	-8.20132
▁seem	-8.20528
▁line	-8.20571
to	-8.20906
▁fan	-8.21213
E	-8.21418
ir	-8.21583
▁left	-8.22419
▁boring	-8.2242
▁mind	-8.22666
ra	-8.22885
▁set	-8.22943
▁probably	-8.23058
ous	-8.23139
▁audience	-8.23438
▁help	-8.23571
ri	-8.23856
ok	-8.23927
▁looks	-8.23997
▁once	-8.24239
".	-8.24285
▁job	-8.24348
▁together	-8.24365
(	-8.24408
▁watched	-8.24497
up	-8.24599
▁comes	-8.24641
▁lead	-8.24917
▁having	-8.2501
▁camera	-8.25036
It	-8.25811
▁half	-8.26327
▁For	-8.26576
▁wasn	-8.26783
▁need	-8.27062
▁making	-8.27097
▁completely	-8.27158
▁keep	-8.27487
▁John	-8.27726
▁American	-8.27774
▁idea	-8.28047
at	-8.28078
▁came	-8.29003
▁actor	-8.29012
▁b	-8.29109
w	-8.29126
▁No	-8.29282
▁Not	-8.29503
▁father	-8.2966
C	-8.302
▁simply	-8.30345
▁DVD	-8.30359
▁M	-8.30437
▁3	-8.31169
O	-8.31259
▁person	-8.32269
▁shot	-8.32464
▁war	-8.32662
▁used	-8.33086
▁certain	-8.33861
▁D	-8.33883
▁true	-8.34588
▁wife	-8.34594
ies	-8.34652
▁H	-8.34711
▁s	-8.34904
▁low	-8.35228
▁until	-8.3537
▁enjoy	-8.35478
est	-8.35985
▁three	-8.35999
▁When	-8.36111
ch	-8.36805
▁De	-8.36851
▁screen	-8.36926
▁shows	-8.37304
▁couple	-8.37465
▁less	-8.37813
▁G	-8.3794
▁read	-8.38202
▁under	-8.38245
▁R	-8.38399
ter	-8.38573
▁maybe	-8.39016
▁second	-8.39134
",	-8.39339
."	-8.39659
▁home	-8.39684
▁start	-8.39688
▁women	-8.39705
▁video	-8.39725
▁especially	-8.39803
R	-8.39834
▁let	-8.39942
▁dur	-8.40283
▁version	-8.40486
▁production	-8.40501
▁star	-8.41015
▁L	-8.41144
▁friends	-8.41937
▁wrong	-8.41994
▁excellent	-8.41995
id	-8.43026
▁sex	-8.43309
one	-8.4342
ate	-8.43528
▁short	-8.4355
▁understand	-8.43726
▁One	-8.43869
▁head	-8.44352
▁everyone	-8.4439
▁won	-8.44392
▁hand	-8.44428
▁house	-8.44501
▁problem	-8.44693
▁poor	-8.44747
▁supposed	-8.44778
▁men	-8.44874
▁car	-8.45413
▁use	-8.45634
▁son	-8.45885
▁piece	-8.45989
▁Well	-8.46132
▁beautiful	-8.46316
▁nice	-8.46346
▁human	-8.46755
▁school	-8.46759
▁However	-8.46806
▁entertaining	-8.46846
▁seeing	-8.47012
▁year	-8.47329
ment	-8.47525
▁10	-8.47572
▁top	-8.47621
▁--	-8.47875
us	-8.47941
▁picture	-8.47991
▁stupid	-8.48338
▁performances	-8.48341
▁dialogue	-8.4837
▁clear	-8.4842
▁sort	-8.48452
▁name	-8.48595
▁awful	-8.48807
▁attempt	-8.48845
▁title	-8.49197
▁night	-8.49197
▁terrible	-8.49238
▁rest	-8.49344
▁recommend	-8.49534
ne	-8.49696
▁himself	-8.5003
▁waste	-8.50386
la	-8.50503
▁hope	-8.50704
▁close	-8.50903
less	-8.50983
▁budget	-8.50995
▁takes	-8.51026
▁mean	-8.51304
▁moments	-8.51414
▁W	-8.51682
▁next	-8.51718
▁particular	-8.51742
▁Hollywood	-8.51755
▁early	-8.51768
▁later	-8.51807
▁getting	-8.51849
▁laugh	-8.5208
▁remember	-8.5212
▁episode	-8.52324
▁To	-8.52472
▁playing	-8.52502
▁wonderful	-8.53565
▁try	-8.53755
v	-8.53804
ton	-8.53842
▁perfect	-8.53876
P	-8.5408
▁lines	-8.54755
ro	-8.54811
▁My	-8.54839
▁kids	-8.5492
▁doing	-8.54955
▁case	-8.55186
▁either	-8.55223
z	-8.5536
G	-8.55728
▁face	-8.55918
▁dead	-8.56108
▁however	-8.56166
▁side	-8.56285
▁live	-8.56624
▁worse	-8.56959
▁instead	-8.56973
▁truly	-8.56989
▁given	-8.57337
▁along	-8.57384
▁stars	-8.57571
▁All	-8.57872
ol	-8.57894
▁p	-8.58251
▁full	-8.58526
▁J	-8.58568
▁humor	-8.58742
▁near	-8.58768
▁small	-8.58769
▁act	-8.59597
ling	-8.59658
▁couldn	-8.59726
▁went	-8.59811
ma	-8.59979
▁kill	-8.60198
▁New	-8.60465
▁itself	-8.60613
ul	-8.60681
▁starts	-8.6131
▁flick	-8.61569
▁classic	-8.61907
▁group	-8.62493
▁stuff	-8.62493
▁Robert	-8.62591
▁gives	-8.62611
nt	-8.62674
▁t	-8.63004
▁Man	-8.63019
▁care	-8.63285
▁beginning	-8.63447
▁friend	-8.6361
▁history	-8.64405
▁black	-8.64448
▁fans	-8.64897
▁hate	-8.64904
et	-8.65036
▁written	-8.65446
am	-8.66042
▁call	-8.66319
▁several	-8.66358
▁past	-8.66371
▁based	-8.66496
▁add	-8.66668
tic	-8.66881
definitely	-8.67004
ther	-8.67045
W	-8.6714
▁Be	-8.67162
tries	-8.67319
▁style	-8.67424
H	-8.67724
▁m	-8.67781
▁drama	-8.68346
▁direction	-8.68357
▁throughout	-8.68397
▁ex	-8.68487
▁against	-8.68495
ting	-8.6851
▁At	-8.68774
▁age	-8.68775
ist	-8.68909
ck	-8.68992
▁His	-8.69401
▁game	-8.69567
▁4	-8.69642
▁happened	-8.69721
▁1	-8.69777
▁guess	-8.69798
▁daughter	-8.70376
▁example	-8.70376
ia	-8.70382
▁extreme	-8.70393
▁thriller	-8.7049
▁although	-8.70503
▁order	-8.7051
il	-8.70571
▁fight	-8.71194
tally	-8.71357
▁fine	-8.7141
▁Even	-8.71496
▁kid	-8.71717
▁often	-8.71965
F	-8.72143
▁guys	-8.72233
▁late	-8.7241
▁children	-8.72454
▁expect	-8.72468
ent	-8.72572
ty	-8.72756
but	-8.72892
▁boy	-8.72944
ian	-8.73256
▁THE	-8.73355
▁felt	-8.73525
▁able	-8.73618
*	-8.73797
▁moment	-8.73891
▁lack	-8.74044
son	-8.74081
In	-8.74503
▁mother	-8.74574
be	-8.7472
▁run	-8.75115
▁genre	-8.75685
▁evil	-8.7569
▁interest	-8.75725
▁lives	-8.7579
▁K	-8.75968
ish	-8.76164
▁open	-8.76213
▁How	-8.76298
▁self	-8.76712
▁amazing	-8.76799
me	-8.76806
▁directed	-8.76879
▁Don	-8.77182
▁murder	-8.77512
ive	-8.77657
▁gave	-8.77829
▁matter	-8.77836
na	-8.77992
▁wants	-8.78063
ad	-8.78205
▁type	-8.78351
▁light	-8.78554
▁throw	-8.78951
▁voice	-8.78955
▁straight	-8.78956
▁looked	-8.79364
▁killer	-8.79364
▁others	-8.7939
▁co	-8.79403
▁loved	-8.79543
▁Co	-8.79597
▁bring	-8.79784
▁strange	-8.79935
▁already	-8.80061
▁quality	-8.80061
▁perhaps	-8.801
▁wonder	-8.80465
▁ends	-8.80764
▁enjoyed	-8.8078
▁heart	-8.80992
un	-8.81127
ine	-8.81138
▁violence	-8.81216
▁Also	-8.81309
▁coming	-8.81473
▁blood	-8.82091
L	-8.82402
▁happens	-8.82635
There	-8.827
▁power	-8.83029
▁parts	-8.83115
ally	-8.835
▁entertainment	-8.83516
▁After	-8.83639
▁Re	-8.83753
ant	-8.83755
like	-8.83898
out	-8.84089
▁wish	-8.84603
▁decent	-8.84686
▁manage	-8.84687
▁told	-8.84725
▁With	-8.84866
N	-8.84883
▁e	-8.84913
▁today	-8.85209
▁killed	-8.85274
▁soon	-8.85504
▁fair	-8.85612
▁writing	-8.85877
▁lost	-8.85904
▁dark	-8.85928
▁feature	-8.85936
▁absolutely	-8.86139
▁Mr	-8.86171
▁Tom	-8.86395
not	-8.86501
ry	-8.86839
fi	-8.86955
no	-8.87011
!!	-8.87011
▁husband	-8.87082
▁myself	-8.87082
▁major	-8.87082
▁room	-8.87131
▁town	-8.87175
▁Why	-8.87189
he	-8.87406
▁Some	-8.87587
x	-8.87912
▁seemed	-8.87984
3	-8.88033
▁support	-8.88301
▁themselves	-8.88301
▁learn	-8.88301
▁score	-8.88311
▁stop	-8.88333
▁turns	-8.88593
▁Then	-8.88763
ard	-8.88766
1	-8.88991
▁entire	-8.89122
▁usual	-8.89143
▁experience	-8.89177
▁roles	-8.89255
▁horrible	-8.89536
▁ridiculous	-8.89536
ance	-8.89569
▁called	-8.90208
▁f	-8.9064
▁sequel	-8.90786
▁behind	-8.90786
▁disappointed	-8.90847
▁finally	-8.91121
▁wanted	-8.91251
▁taken	-8.91321
▁rent	-8.91474
▁c	-8.91476
line	-8.91556
▁feeling	-8.91895
▁happen	-8.9198
▁attention	-8.92051
▁cheap	-8.92051
▁buy	-8.92052
▁hit	-8.92079
ism	-8.9254
But	-8.92708
2	-8.92723
▁N	-8.9285
▁meet	-8.92951
K	-8.9296
▁serious	-8.92967
▁opinion	-8.93334
▁typical	-8.9337
if	-8.9388
▁st	-8.94127
▁leave	-8.94429
▁actress	-8.94571
▁child	-8.94636
▁chance	-8.9464
▁white	-8.9471
▁con	-8.94833
▁says	-8.95057
▁heard	-8.95187
▁important	-8.95525
If	-8.95654
▁police	-8.95929
▁female	-8.95969
▁exactly	-8.96017
▁pay	-8.96033
▁across	-8.96076
▁Whil	-8.96098
▁thinking	-8.96121
▁5	-8.9634
▁figure	-8.96376
▁gore	-8.96602
Y	-8.96721
▁change	-8.96757
▁War	-8.96991
▁Or	-8.97108
lo	-8.97392
▁Dr	-8.97583
▁works	-8.97674
▁sets	-8.97837
ful	-8.97872
▁U	-8.97933
ever	-8.98452
▁known	-8.98482
▁etc	-8.98634
▁favorite	-8.98635
▁stories	-8.98637
▁Peter	-8.9874
ta	-8.99382
▁stay	-8.99636
▁Of	-8.99788
▁beyond	-9.00004
▁novel	-9.00006
vi	-9.0001
▁cool	-9.00025
▁dull	-9.0003
▁storyline	-9.00158
ge	-9.00328
▁career	-9.00386
cluding	-9.00639
▁An	-9.0085
▁decide	-9.01039
▁tale	-9.0138
▁local	-9.01393
▁middle	-9.01413
▁word	-9.01425
▁easy	-9.01464
▁involved	-9.01517
▁Joe	-9.01529
spite	-9.0166
▁hero	-9.01872
▁strong	-9.02413
▁obvious	-9.02424
▁complete	-9.02431
▁save	-9.02628
▁easily	-9.028
▁taking	-9.02807
▁Michael	-9.02894
ster	-9.02928
pe	-9.03136
▁w	-9.03214
ated	-9.0323
▁gun	-9.03719
▁pre	-9.03768
▁consider	-9.03833
▁America	-9.03868
▁Her	-9.03913
▁falls	-9.04061
ley	-9.04093
▁Lee	-9.0416
▁running	-9.04239
▁possible	-9.0427
▁Just	-9.04357
▁viewer	-9.04429
▁art	-9.04679
▁usually	-9.04707
go	-9.04883
▁girls	-9.04889
▁sit	-9.04897
im	-9.04934
▁eyes	-9.04937
U	-9.04992
ner	-9.0501
▁started	-9.05128
And	-9.05238
▁sound	-9.05442
▁happy	-9.05678
▁hold	-9.05777
▁leaves	-9.05914
co	-9.06166
oo	-9.06244
▁view	-9.06517
▁present	-9.06711
sh	-9.0686
mo	-9.07068
▁average	-9.07149
▁knew	-9.07149
▁alone	-9.07152
▁level	-9.07257
▁reality	-9.07312
▁hour	-9.07359
who	-9.0743
▁released	-9.07517
▁hell	-9.07524
▁Now	-9.08193
▁talent	-9.08202
▁fall	-9.08293
▁difficult	-9.08641
▁hilarious	-9.08641
▁single	-9.08659
▁ago	-9.08679
▁somewhat	-9.08692
▁James	-9.08741
▁relationship	-9.08805
▁events	-9.08887
▁mostly	-9.08893
▁sad	-9.09444
▁deal	-9.09453
▁d	-9.09482
▁killing	-9.09565
em	-9.09833
age	-9.09857
▁release	-9.0988
▁Me	-9.09903
▁simple	-9.10156
▁footage	-9.10158
▁truth	-9.1016
▁huge	-9.1016
▁scary	-9.10261
ac	-9.10762
of	-9.10777
▁final	-9.10894
▁pro	-9.11338
▁stand	-9.11418
▁g	-9.11678
▁York	-9.11694
▁documentary	-9.11731
▁cut	-9.11734
▁non	-9.11885
▁effort	-9.11938
▁form	-9.11971
!)	-9.11992
▁obviously	-9.12147
▁older	-9.12369
time	-9.12421
ha	-9.12431
ical	-9.12518
▁days	-9.12794
▁mention	-9.12806
▁slow	-9.12861
,"	-9.13002
▁romantic	-9.13257
▁doubt	-9.13258
▁Black	-9.13298
▁	-9.13312
▁George	-9.13322
▁modern	-9.13332
▁body	-9.13372
kept	-9.13408
▁surprised	-9.13584
▁ten	-9.14159
▁cinema	-9.14826
▁class	-9.15094
ca	-9.15153
▁question	-9.15226
way	-9.15323
for	-9.15469
▁song	-9.15558
ho	-9.15635
▁comic	-9.16404
▁four	-9.16435
▁above	-9.16457
▁society	-9.16457
▁bunch	-9.16465
▁20	-9.16507
▁message	-9.1652
?"	-9.16565
▁hot	-9.16701
dy	-9.1672
▁crime	-9.16858
▁remind	-9.16861
▁St	-9.17114
▁parents	-9.17193
▁honest	-9.17684
per	-9.17915
▁Go	-9.17965
▁similar	-9.18091
▁comment	-9.18095
▁admit	-9.18095
▁positive	-9.18097
giving	-9.18107
▁crap	-9.18127
▁overall	-9.18193
▁points	-9.18249
▁sh	-9.18319
all	-9.18426
▁weak	-9.18511
▁talking	-9.18655
▁shown	-9.19259
▁hours	-9.196
▁future	-9.19782
▁romance	-9.198
▁lame	-9.20722
What	-9.20831
▁la	-9.20832
▁Do	-9.21033
▁surprise	-9.21142
do	-9.21465
▁Richard	-9.21529
▁sp	-9.21913
▁begin	-9.22146
▁expected	-9.22211
▁writer	-9.22284
▁problems	-9.22406
▁total	-9.22408
which	-9.22556
▁realize	-9.22975
▁dog	-9.23016
▁suspense	-9.23169
▁silly	-9.23182
▁public	-9.23183
▁80	-9.23235
um	-9.23468
ial	-9.23506
▁laughs	-9.23702
▁seriously	-9.2374
▁number	-9.23813
▁result	-9.23828
5	-9.24
op	-9.2426
▁en	-9.24335
▁talk	-9.24533
")	-9.24601
ary	-9.24787
▁Paul	-9.24878
▁business	-9.24905
ph	-9.24922
▁criminal	-9.24937
▁premise	-9.24937
▁agree	-9.24938
▁team	-9.2495
▁words	-9.24961
▁Martin	-9.24966
▁box	-9.25004
old	-9.25066
▁gone	-9.25091
▁spend	-9.251
min	-9.2516
▁aren	-9.25576
▁sequence	-9.25673
▁On	-9.25699
▁upon	-9.2577
▁30	-9.25913
▁notice	-9.26203
ow	-9.26514
ng	-9.26696
▁travel	-9.26705
▁cheesy	-9.26722
▁gay	-9.26733
▁fear	-9.26744
▁Instead	-9.26751
▁telling	-9.26785
▁annoying	-9.2681
▁Although	-9.26835
▁saying	-9.26878
▁Fro	-9.26954
ag	-9.27028
▁sub	-9.27071
we	-9.27137
▁jokes	-9.27201
▁weird	-9.2734
▁review	-9.27343
▁Ho	-9.27659
!!!	-9.278
▁elements	-9.28228
▁English	-9.28541
▁atmosphere	-9.28541
▁yourself	-9.28541
▁Oscar	-9.28541
▁country	-9.28563
▁living	-9.28573
▁city	-9.28587
▁Jack	-9.28591
aw	-9.28601
▁pull	-9.28606
▁male	-9.28607
▁gang	-9.28635
▁enjoyable	-9.2864
ight	-9.2871
▁rating	-9.28849
▁Oh	-9.28945
?)	-9.28971
▁talented	-9.29105
▁none	-9.29141
▁brother	-9.29408
▁move	-9.29564
▁members	-9.29588
▁cat	-9.29806
▁due	-9.30052
▁check	-9.30053
▁Al	-9.30169
▁fast	-9.30235
▁follow	-9.30257
▁Ma	-9.30356
▁among	-9.30404
▁shots	-9.3042
▁mystery	-9.30422
▁free	-9.30469
▁Unfortunately	-9.30469
▁pick	-9.30469
▁stage	-9.30603
▁fit	-9.3065
▁decided	-9.30868
0	-9.31114
▁escape	-9.3127
▁break	-9.31314
▁eye	-9.3145
▁working	-9.3166
▁Bo	-9.31693
▁brilliant	-9.3186
▁camp	-9.32023
over	-9.32041
▁personal	-9.32052
▁po	-9.32056
▁potential	-9.32279
▁dialog	-9.3228
▁jump	-9.32282
▁possibly	-9.32298
▁portrayal	-9.32303
▁barely	-9.32339
▁Joan	-9.32346
▁list	-9.3237
nd	-9.3241
ap	-9.32632
▁mess	-9.32845
▁dis	-9.32995
▁showing	-9.33009
hi	-9.33066
▁appears	-9.33077
ating	-9.33122
!"	-9.33259
▁situation	-9.33279
▁spirit	-9.33427
ab	-9.33871
▁viewers	-9.3417
▁utter	-9.34204
▁World	-9.34233
▁hear	-9.34244
▁Maybe	-9.34336
che	-9.34355
▁forward	-9.34527
▁haven	-9.348
▁bar	-9.34855
ron	-9.3507
▁die	-9.35219
▁sister	-9.35251
▁dream	-9.35277
▁sequences	-9.35345
▁nor	-9.35358
▁laughing	-9.35497
ted	-9.35533
came	-9.35569
▁shoot	-9.35576
▁walk	-9.35687
▁h	-9.35773
ey	-9.3593
▁period	-9.36163
7	-9.36393
ke	-9.36591
▁keeps	-9.36595
▁appear	-9.36844
▁named	-9.37013
▁poorly	-9.37195
▁begins	-9.37446
▁appeal	-9.37585
▁reading	-9.37687
▁previous	-9.37733
▁towards	-9.37918
▁background	-9.38163
▁material	-9.38163
▁soundtrack	-9.38163
▁tension	-9.38166
▁imagine	-9.38173
▁Mike	-9.38175
▁NOT	-9.38203
▁Film	-9.38234
▁famous	-9.38298
▁OK	-9.38345
ach	-9.38531
▁hair	-9.38556
land	-9.38715
▁Who	-9.38736
und	-9.38943
▁features	-9.38943
▁viewing	-9.38946
▁9	-9.39164
▁miss	-9.3928
com	-9.39586
▁wait	-9.39635
▁Z	-9.39723
So	-9.39853
▁cause	-9.39945
▁whe	-9.40032
▁allow	-9.40107
▁prison	-9.40168
▁choice	-9.40204
▁convincing	-9.40204
▁plenty	-9.40204
▁tried	-9.40204
▁odd	-9.40207
▁rich	-9.40208
▁purpose	-9.40209
▁believable	-9.40215
▁animation	-9.40225
▁front	-9.4025
▁15	-9.40251
▁Ed	-9.40319
▁vari	-9.40348
▁Se	-9.40354
▁Star	-9.40733
▁despi	-9.40761
▁prove	-9.40816
▁waiting	-9.40827
▁worked	-9.40945
▁opening	-9.41287
ny	-9.41302
6	-9.41386
▁flat	-9.41624
ile	-9.41717
off	-9.41796
▁discover	-9.41839
my	-9.41906
▁post	-9.41949
▁canno	-9.42101
▁British	-9.42287
▁masterpiece	-9.42289
▁moving	-9.42292
▁share	-9.42296
▁predictable	-9.42298
▁dramatic	-9.42325
▁realistic	-9.4234
▁five	-9.42344
▁Ver	-9.42366
▁grow	-9.42409
My	-9.42539
He	-9.42617
po	-9.42653
▁sometimes	-9.42703
▁speak	-9.43091
▁return	-9.43177
▁subject	-9.43316
ay	-9.43354
▁*	-9.43419
▁runs	-9.43626
▁battle	-9.43637
▁By	-9.43702
▁theater	-9.43711
ky	-9.43744
▁value	-9.43808
▁effect	-9.43809
▁cop	-9.43855
so	-9.43859
even	-9.44125
You	-9.44163
▁write	-9.44315
▁success	-9.44396
▁Ben	-9.44402
▁reasons	-9.44412
▁herself	-9.44415
▁large	-9.44415
▁indeed	-9.44415
▁crew	-9.44418
▁La	-9.44426
▁plain	-9.44438
▁secret	-9.44439
▁French	-9.44463
▁editing	-9.44471
▁powerful	-9.44489
▁except	-9.4458
▁forget	-9.44672
by	-9.44679
ver	-9.44685
▁send	-9.44948
end	-9.45022
▁state	-9.45069
▁19	-9.4508
▁v	-9.45209
▁fails	-9.45338
▁ask	-9.45527
▁brings	-9.4553
ang	-9.45729
▁train	-9.4601
▁mix	-9.46129
led	-9.46152
▁general	-9.4617
▁count	-9.46457
▁fantastic	-9.46589
▁yes	-9.4661
▁store	-9.46617
▁David	-9.46638
▁setting	-9.46664
▁girlfriend	-9.4668
▁anyway	-9.46719
▁Vi	-9.46759
▁apparently	-9.46783
▁create	-9.46816
les	-9.4692
mm	-9.47065
▁Sam	-9.47362
▁rate	-9.47377
der	-9.47473
▁70	-9.47535
▁expecting	-9.47787
▁Ra	-9.47979
9	-9.48181
▁joke	-9.48271
▁cover	-9.4836
▁Sea	-9.48456
▁third	-9.48811
▁solid	-9.48811
▁season	-9.48823
▁space	-9.48871
▁Le	-9.49343
▁compare	-9.49467
▁7	-9.49986
uch	-9.49993
▁Li	-9.5001
▁hands	-9.50107
mp	-9.50254
▁answer	-9.50468
▁villain	-9.50511
▁trip	-9.50831
▁control	-9.50895
▁ended	-9.51004
▁beauty	-9.51084
▁cinematography	-9.51116
▁otherwise	-9.51138
top	-9.51139
▁beat	-9.51142
ick	-9.51159
▁pointless	-9.51204
▁outside	-9.51287
▁recently	-9.51412
▁needs	-9.51639
▁missing	-9.51737
▁interested	-9.52068
▁younger	-9.52121
ving	-9.52122
▁credit	-9.52319
4	-9.52503
red	-9.52514
ier	-9.52543
▁comments	-9.52733
▁accent	-9.52868
▁party	-9.52901
▁minute	-9.53052
ex	-9.53127
▁mistake	-9.53235
▁showed	-9.53251
▁drive	-9.53333
▁lose	-9.53337
▁unique	-9.53387
▁cult	-9.53399
▁IMDb	-9.53409
▁eventually	-9.53409
▁project	-9.53409
▁slasher	-9.53409
▁studio	-9.53409
▁incredibly	-9.53412
▁screenplay	-9.53422
▁immediately	-9.53443
▁US	-9.53447
▁agent	-9.53473
▁Movie	-9.53477
▁era	-9.53506
io	-9.53534
▁portrayed	-9.53618
▁filled	-9.53702
od	-9.53799
▁amount	-9.53831
▁offer	-9.53896
ence	-9.53897
▁lo	-9.53936
00	-9.5434
▁Mar	-9.54356
ious	-9.54368
right	-9.54614
ized	-9.54731
▁reviews	-9.54738
▁...	-9.5484
ler	-9.5494
▁Ro	-9.55002
▁Jean	-9.55169
▁charm	-9.55222
▁visual	-9.55287
▁taste	-9.55562
ven	-9.55672
▁respect	-9.55743
▁Disney	-9.5579
▁historical	-9.55791
▁clever	-9.55798
▁theme	-9.55799
▁sorry	-9.55854
▁Charlie	-9.55881
▁directors	-9.55944
▁First	-9.55982
▁musical	-9.56069
▁copy	-9.56077
▁within	-9.56265
▁Bad	-9.56268
▁credits	-9.56315
ure	-9.56442
nce	-9.56476
▁Ha	-9.56534
▁Love	-9.56621
▁means	-9.56675
▁land	-9.56678
▁pure	-9.56791
istic	-9.5696
▁Di	-9.57009
▁brothers	-9.57076
▁fighting	-9.57126
how	-9.57224
gg	-9.57239
▁Dan	-9.57317
ob	-9.57397
▁needed	-9.57473
▁twist	-9.57474
▁ra	-9.57602
movie	-9.57603
▁wasted	-9.57847
▁trouble	-9.57856
▁Bill	-9.58078
ily	-9.58167
▁desperate	-9.58229
▁wrote	-9.58229
▁Davis	-9.5823
▁amusing	-9.5823
▁nature	-9.5823
▁familiar	-9.5823
▁television	-9.58231
▁pain	-9.58271
▁catch	-9.58328
▁Dead	-9.58331
▁II	-9.58336
▁fire	-9.58493
▁directing	-9.58606
▁chase	-9.58643
▁God	-9.58746
▁soul	-9.5888
▁episodes	-9.58978
▁cute	-9.58984
▁sci	-9.59011
ub	-9.59016
▁leads	-9.59056
▁books	-9.59206
▁Let	-9.59238
▁Fred	-9.59242
▁Did	-9.59244
rs	-9.59456
▁sign	-9.59468
▁moves	-9.59546
As	-9.59583
▁William	-9.59603
ably	-9.59803
▁island	-9.59865
▁50	-9.60005
▁sleep	-9.60132
▁Sp	-9.60347
▁pace	-9.60389
▁deep	-9.60394
J	-9.60446
▁master	-9.6046
To	-9.60557
▁di	-9.60597
+	-9.60729
▁mysterious	-9.60729
▁scientist	-9.60729
▁computer	-9.6073
▁basically	-9.60738
▁fake	-9.60742
▁appearance	-9.60747
▁concept	-9.60754
▁ghost	-9.6077
▁sick	-9.60774
▁social	-9.60795
▁Jason	-9.60829
ug	-9.60853
▁Watch	-9.60868
▁please	-9.60896
gen	-9.60976
▁produced	-9.61016
▁whatever	-9.61084
▁greatest	-9.61122
▁honestly	-9.61365
V	-9.61429
▁casting	-9.61788
ect	-9.61871
▁feels	-9.6265
▁mere	-9.62848
that	-9.62976
▁whatsoever	-9.63293
▁further	-9.63296
▁impossible	-9.63297
▁match	-9.63297
▁road	-9.63303
▁common	-9.63306
▁development	-9.63309
▁superb	-9.63328
▁join	-9.6333
tro	-9.63343
▁Like	-9.6342
▁Most	-9.63515
que	-9.63731
mon	-9.6395
side	-9.64206
▁bear	-9.64592
▁focus	-9.64597
ren	-9.64765
▁knows	-9.64829
han	-9.64849
▁pass	-9.64881
▁deliver	-9.64966
▁writers	-9.65001
▁sl	-9.65009
▁boys	-9.6511
you	-9.65301
art	-9.6567
▁dumb	-9.65746
▁color	-9.65811
▁Steve	-9.65884
▁complex	-9.65925
▁disaster	-9.65925
▁doctor	-9.65925
▁nudity	-9.65925
▁brain	-9.65925
▁rip	-9.65927
▁lady	-9.65943
ning	-9.65952
All	-9.66019
▁married	-9.66023
▁Though	-9.66058
▁disappointing	-9.66086
▁somehow	-9.66128
▁ability	-9.66137
▁Still	-9.66291
▁twists	-9.66348
fer	-9.66449
tion	-9.66585
iv	-9.66608
ee	-9.66682
▁struggle	-9.66703
▁terms	-9.66747
ring	-9.66912
▁win	-9.67167
▁filmmakers	-9.67221
kin	-9.67541
va	-9.67719
▁100	-9.68443
▁mark	-9.68559
ni	-9.68584
▁earlier	-9.68628
▁wild	-9.68628
▁porn	-9.68641
▁smart	-9.68642
▁slightly	-9.68679
▁stick	-9.68683
▁bored	-9.68722
▁dress	-9.68766
▁Great	-9.68805
▁carrie	-9.6882
▁actresses	-9.68833
▁moral	-9.68848
▁minor	-9.68866
▁Day	-9.68867
▁Every	-9.68878
▁ride	-9.68884
ga	-9.68895
▁V	-9.6921
lu	-9.69452
▁exception	-9.69515
▁sexy	-9.69518
▁entirely	-9.69546
▁values	-9.69556
▁follows	-9.70058
▁ma	-9.70373
mi	-9.70389
▁Ca	-9.70389
▁Cha	-9.7045
ock	-9.70471
men	-9.70482
▁step	-9.70673
▁exist	-9.70729
▁suit	-9.70749
▁songs	-9.70749
▁kick	-9.70813
▁dad	-9.7084
ger	-9.70927
▁effective	-9.70993
▁gre	-9.71046
▁German	-9.71068
▁rare	-9.71099
▁trash	-9.7115
▁shame	-9.71384
▁opera	-9.714
▁conflict	-9.71405
▁language	-9.71406
▁sweet	-9.71406
▁hint	-9.71407
ew	-9.71417
▁Jones	-9.71432
▁monster	-9.71442
▁sitting	-9.71447
▁bomb	-9.71451
▁carry	-9.71457
▁Th	-9.71471
▁Harry	-9.71474
▁culture	-9.71496
▁Two	-9.71505
▁suggest	-9.71525
▁Allen	-9.71565
▁Billy	-9.71696
▁quickly	-9.71762
▁Americans	-9.72035
▁died	-9.72445
▁actual	-9.72748
▁90	-9.72799
▁anti	-9.7295
ep	-9.73165
ice	-9.73412
▁Will	-9.73415
▁judge	-9.73493
work	-9.73637
▁Frank	-9.73657
▁sexual	-9.7382
For	-9.73829
▁recent	-9.7385
▁painful	-9.73858
▁political	-9.73866
▁emotional	-9.73947
well	-9.74045
▁Ba	-9.74141
ette	-9.7417
▁accept	-9.74221
volving	-9.74258
	-9.74263
▁bizarre	-9.74263
▁comparison	-9.74263
▁humour	-9.74263
▁intriguing	-9.74263
▁quiet	-9.74263
▁Moore	-9.74263
▁company	-9.74264
▁serial	-9.74265
▁wall	-9.74287
▁ego	-9.74295
▁dance	-9.74296
▁track	-9.74297
▁spent	-9.74297
▁collection	-9.74301
▁bright	-9.74305
▁climax	-9.74309
▁remain	-9.74327
▁creepy	-9.74362
▁manner	-9.74411
▁band	-9.74509
▁air	-9.7453
AND	-9.7454
ake	-9.74556
▁singing	-9.74675
▁forced	-9.74681
▁Overall	-9.74737
▁ways	-9.74816
▁Du	-9.74932
war	-9.75018
▁former	-9.75054
▁10.	-9.75266
▁hop	-9.75324
▁Ru	-9.75401
▁ring	-9.75465
ied	-9.75653
fa	-9.75665
▁Mo	-9.75733
▁super	-9.75865
ped	-9.75945
ize	-9.76013
lin	-9.76163
▁roll	-9.76342
▁questions	-9.76511
AR	-9.7659
▁normal	-9.76835
ions	-9.76976
▁wear	-9.77028
▁Wood	-9.77033
▁See	-9.77057
▁sounds	-9.77057
▁meant	-9.77163
rd	-9.77187
▁treat	-9.77188
▁fantasy	-9.77204
▁genuine	-9.77204
▁violent	-9.77204
▁awesome	-9.77204
▁heavy	-9.77204
▁neither	-9.77204
▁leaving	-9.77205
▁race	-9.77246
▁cartoon	-9.77272
▁cross	-9.77292
▁plane	-9.77313
▁extra	-9.77324
▁teacher	-9.77378
▁redeeming	-9.77418
ade	-9.7768
▁mo	-9.77788
▁fe	-9.78333
▁tone	-9.78651
▁acted	-9.78716
▁badly	-9.78818
▁producers	-9.78838
▁recommended	-9.78875
ass	-9.78979
ble	-9.79138
ities	-9.79157
▁meaning	-9.79305
▁fashion	-9.79321
▁nu	-9.79412
▁("	-9.79439
8	-9.79475
ose	-9.79572
That	-9.79607
house	-9.79617
▁attack	-9.79791
One	-9.79829
▁appreciate	-9.79872
our	-9.79927
▁Ka	-9.79999
▁crazy	-9.80234
▁excuse	-9.80234
▁garbage	-9.80234
▁Flynn	-9.80234
▁push	-9.80234
▁conclusion	-9.80235
▁difference	-9.80235
▁available	-9.80237
▁individual	-9.80238
▁tough	-9.8025
▁spot	-9.80252
▁grand	-9.80272
▁flicks	-9.80281
▁depth	-9.80323
nother	-9.80343
▁impressed	-9.80357
▁Jane	-9.80399
▁unless	-9.80411
ail	-9.80422
▁failed	-9.80449
▁adult	-9.80463
▁Da	-9.80472
▁White	-9.80545
▁El	-9.80711
▁touching	-9.80799
star	-9.80872
ric	-9.80933
ING	-9.8096
▁Pan	-9.81013
▁missed	-9.81023
▁god	-9.81076
▁realized	-9.81084
ez	-9.81224
▁considered	-9.81233
bi	-9.81359
▁bother	-9.81372
▁mis	-9.81472
▁inter	-9.81485
fully	-9.81486
▁Van	-9.81598
ell	-9.81708
▁perfectly	-9.81708
▁whom	-9.81724
▁door	-9.8183
▁eat	-9.81945
▁skills	-9.81996
iness	-9.82172
▁o	-9.82495
▁perform	-9.82807
▁uses	-9.82808
nny	-9.82984
ties	-9.83
this	-9.83177
▁explain	-9.83224
▁teenage	-9.83264
▁drunk	-9.83308
▁Scott	-9.83359
▁industry	-9.83359
▁remake	-9.83359
▁edge	-9.83366
▁memorable	-9.83371
▁Night	-9.83377
▁cold	-9.83385
▁militar	-9.8339
▁detective	-9.83393
▁London	-9.83411
▁nobody	-9.83412
▁Fa	-9.83452
▁adaptation	-9.83471
▁partner	-9.83482
▁constantly	-9.8359
▁week	-9.83634
▁vampire	-9.837
▁drug	-9.83738
lent	-9.8374
▁adventure	-9.83774
▁aspect	-9.84312
▁mini	-9.84462
▁Sa	-9.84478
▁falling	-9.84574
▁audiences	-9.84647
▁inside	-9.84745
▁added	-9.8486
▁touch	-9.84952
▁lighting	-9.85
▁issues	-9.85474
making	-9.85526
with	-9.8598
▁suffer	-9.85999
▁scream	-9.86017
▁quick	-9.86172
▁successful	-9.86242
cy	-9.86243
▁mood	-9.86346
▁note	-9.86358
▁Che	-9.86372
▁hide	-9.86563
os	-9.86579
▁Earth	-9.86584
▁college	-9.86585
▁incredible	-9.86585
▁innocent	-9.86585
▁tragic	-9.86585
▁suspect	-9.86586
▁fresh	-9.86586
▁commercial	-9.86587
▁intelligence	-9.8659
▁impression	-9.86599
▁earth	-9.86601
▁starring	-9.86614
▁fiction	-9.86616
▁water	-9.86659
▁People	-9.86679
▁loud	-9.86722
▁sent	-9.86725
▁rock	-9.86758
▁force	-9.86773
rate	-9.86782
her	-9.869
▁introduced	-9.86915
▁law	-9.86938
▁Sci	-9.86944
▁changes	-9.86994
▁standard	-9.87042
▁factor	-9.87082
▁ship	-9.87127
▁Can	-9.87302
ai	-9.87391
ham	-9.8752
▁continue	-9.87551
▁40	-9.87575
part	-9.87586
rought	-9.87648
▁/>"	-9.87797
row	-9.87817
▁Sha	-9.87871
▁Yes	-9.87897
uck	-9.87992
nna	-9.88058
▁wondering	-9.88248
▁tape	-9.88335
▁King	-9.8835
▁laughed	-9.88374
▁par	-9.88464
act	-9.88536
cut	-9.88545
▁images	-9.88575
oc	-9.88648
▁sucks	-9.8883
▁l	-9.88876
▁Mc	-9.89086
cre	-9.89355
▁display	-9.89442
▁brief	-9.89495
▁Red	-9.89663
▁discuss	-9.89795
▁sea	-9.89804
▁regard	-9.89896
▁Gordon	-9.89918
▁Hitchcock	-9.89918
▁hospital	-9.89918
▁marriage	-9.89918
▁outstanding	-9.89918
▁Japanese	-9.89918
▁charge	-9.89918
▁process	-9.89918
▁brutal	-9.89919
▁subtle	-9.89919
▁comedies	-9.89919
▁gain	-9.89919
▁narrative	-9.8992
▁impact	-9.89921
▁round	-9.89925
▁protect	-9.89936
▁accurate	-9.89952
some	-9.89956
▁cinematic	-9.89956
▁hurt	-9.89971
▁plus	-9.89995
▁market	-9.89997
▁nowhere	-9.90018
▁test	-9.90045
▁Where	-9.90061
▁Good	-9.90076
▁bigge	-9.9009
▁Charles	-9.90106
▁ran	-9.90133
▁surprisingly	-9.90299
▁West	-9.90348
▁emotion	-9.90381
▁building	-9.90395
▁Na	-9.90409
▁creature	-9.90427
▁street	-9.90435
▁element	-9.90498
▁faces	-9.90679
▁Only	-9.90722
▁ill	-9.90813
▁created	-9.90815
hose	-9.90818
▁shooting	-9.90904
▁center	-9.90932
▁Ar	-9.90977
▁Gar	-9.91415
▁happening	-9.91448
ood	-9.91641
ony	-9.91987
▁filmed	-9.92125
ER	-9.92232
▁Too	-9.92251
▁Here	-9.92428
▁rid	-9.92599
▁du	-9.92706
▁paint	-9.92717
year	-9.92742
▁stands	-9.92804
gi	-9.9282
▁develop	-9.92881
ual	-9.93046
▁describe	-9.93146
▁ch	-9.93173
▁Adam	-9.93361
▁bottom	-9.93366
▁evidence	-9.93366
▁mediocre	-9.93366
▁decade	-9.93367
▁Henry	-9.93367
▁presence	-9.93367
▁vote	-9.93367
▁visit	-9.93368
▁robot	-9.93368
▁surreal	-9.93369
▁intended	-9.93369
▁decision	-9.93371
▁freak	-9.93374
▁rise	-9.93384
▁paid	-9.93386
▁unknown	-9.93388
▁capture	-9.93392
▁treatment	-9.93392
▁negative	-9.93392
▁Jim	-9.93404
▁exciting	-9.93423
▁trailer	-9.93438
▁revenge	-9.93445
▁suddenly	-9.93476
▁Perhaps	-9.93512
▁inspired	-9.93515
▁length	-9.93535
▁13	-9.93536
▁lesson	-9.93604
▁Anyway	-9.93655
▁mission	-9.93675
▁Best	-9.93784
▁Matt	-9.93858
ign	-9.93876
▁developed	-9.93935
▁student	-9.94021
▁moved	-9.94044
▁steal	-9.94105
▁Car	-9.94173
We	-9.94217
▁sta	-9.94466
▁****	-9.94473
▁red	-9.94648
▁Lo	-9.94662
An	-9.94695
▁attempts	-9.94868
▁dreams	-9.94956
▁makers	-9.95017
▁situations	-9.95061
▁lover	-9.95503
▁Cl	-9.95608
▁OF	-9.95697
▁design	-9.96022
▁Was	-9.96067
▁fac	-9.96089
▁absurd	-9.96214
qu	-9.96238
▁avoid	-9.96454
▁natural	-9.96516
▁unlike	-9.96622
played	-9.967
▁th	-9.96815
▁guns	-9.96842
light	-9.96887
▁confusing	-9.96938
▁conversation	-9.96938
▁convince	-9.96938
▁explanation	-9.96938
▁knock	-9.96938
▁likable	-9.96938
▁naked	-9.96938
▁pleasant	-9.96938
▁CGI	-9.96938
▁favourite	-9.96939
▁attractive	-9.96942
▁Lynch	-9.96943
▁loose	-9.96947
▁Jerry	-9.9695
▁bodies	-9.96954
▁trust	-9.96955
▁pair	-9.96963
▁enter	-9.96996
▁compelling	-9.97012
▁Ja	-9.97014
▁boat	-9.9702
▁professional	-9.97026
▁reporter	-9.97034
▁held	-9.97052
.....	-9.97062
▁Bob	-9.97091
▁ultimately	-9.97219
▁Jr	-9.97329
▁cliché	-9.97346
**	-9.97439
tra	-9.97476
▁shocking	-9.97477
▁provide	-9.9749
▁8	-9.97683
▁gangster	-9.97736
▁Po	-9.9774
▁allowed	-9.97755
....	-9.97755
▁seat	-9.9776
▁li	-9.97837
▁alive	-9.97908
▁following	-9.98057
▁longer	-9.98324
lly	-9.9837
▁Mi	-9.98413
▁apart	-9.99288
X	-9.99336
▁direct	-9.99499
▁r	-9.99706
▁Bette	-9.99715
AN	-9.99752
▁knowing	-9.99837
▁leader	-9.99931
boy	-9.99978
John	-10.0001
American	-10.0003
bad	-10.0018
▁Grant	-10.0023
bought	-10.0049
▁formula	-10.0058
▁thin	-10.0062
▁disappear	-10.0063
▁employ	-10.0064
▁Columbo	-10.0064
▁genius	-10.0064
▁silent	-10.0064
▁thoroughly	-10.0064
▁unusual	-10.0064
▁generation	-10.0064
▁glad	-10.0064
▁tedious	-10.0064
▁wedding	-10.0064
▁surface	-10.0064
▁literally	-10.0064
▁pilot	-10.0064
▁Because	-10.0064
▁expectations	-10.0064
▁Lucy	-10.0065
▁link	-10.0065
▁science	-10.0065
▁Nick	-10.0066
▁Tommy	-10.0067
▁connection	-10.007
▁Gold	-10.007
▁Stone	-10.007
▁lu	-10.007
▁intelligent	-10.007
▁double	-10.007
▁Death	-10.0072
▁Little	-10.0073
▁sight	-10.0073
▁station	-10.0074
▁psycho	-10.0075
▁Lewis	-10.0075
▁unbelievable	-10.0076
▁officer	-10.0078
▁motion	-10.0078
▁scenery	-10.0088
▁drag	-10.0091
▁Ms	-10.0102
au	-10.0104
▁key	-10.0106
val	-10.0111
▁Mary	-10.0113
▁Y	-10.0117
▁per	-10.0138
▁Boy	-10.014
▁charming	-10.0155
▁planet	-10.0161
▁slowly	-10.0165
▁occasional	-10.017
ama	-10.0171
▁teen	-10.0184
aught	-10.0188
▁sc	-10.0194
▁mentioned	-10.0195
▁Ann	-10.0196
ten	-10.0199
▁Gu	-10.0207
yn	-10.0211
▁aim	-10.0213
▁names	-10.0215
king	-10.0221
day	-10.0244
▁dies	-10.0259
▁More	-10.0261
▁deserves	-10.0295
▁Un	-10.031
▁shock	-10.031
ina	-10.0333
▁se	-10.0335
▁understanding	-10.0343
▁lovely	-10.0351
ze	-10.0359
mer	-10.0367
Overall	-10.0385
▁search	-10.0391
▁program	-10.0397
▁finish	-10.0402
▁hang	-10.0409
▁Ta	-10.0427
▁receive	-10.0428
▁remains	-10.0442
tter	-10.0447
▁Christopher	-10.0449
▁essential	-10.0449
▁religious	-10.0449
▁routine	-10.0449
▁strength	-10.0449
▁survive	-10.0449
▁village	-10.0449
▁okay	-10.0449
▁superior	-10.0449
▁dozen	-10.0449
▁wealth	-10.0449
▁attitude	-10.0449
▁root	-10.0449
▁relative	-10.0449
▁instance	-10.0449
▁satire	-10.0449
▁ground	-10.0449
▁boss	-10.0449
▁machine	-10.0449
▁assume	-10.0449
▁paper	-10.045
▁caught	-10.045
▁radio	-10.0451
▁fish	-10.0455
she	-10.0456
▁anymore	-10.0456
Co	-10.0457
▁Laura	-10.0459
▁mob	-10.0461
▁stunning	-10.0462
▁equally	-10.0471
▁sun	-10.0477
▁wide	-10.0506
▁rarely	-10.0507
▁finding	-10.0523
▁mixed	-10.0532
▁Thank	-10.0533
▁location	-10.0555
▁accident	-10.0563
▁6	-10.0566
▁presented	-10.0573
Not	-10.0577
▁ready	-10.0584
lic	-10.0585
ship	-10.0606
▁Ri	-10.0607
▁murdered	-10.0615
▁Ran	-10.0632
▁nicely	-10.0653
▁animat	-10.0659
use	-10.0661
▁Ford	-10.0663
▁murders	-10.0674
▁teenagers	-10.0689
real	-10.0693
rn	-10.0703
▁actions	-10.0733
▁surely	-10.0743
▁seconds	-10.0758
▁Gi	-10.0765
Some	-10.0782
life	-10.0786
How	-10.0791
▁build	-10.0792
ney	-10.0801
▁reveal	-10.0802
▁ruin	-10.0806
▁surprising	-10.0807
▁blame	-10.0812
Oh	-10.0812
though	-10.0817
▁adults	-10.0818
con	-10.0823
▁mouth	-10.0833
par	-10.0844
▁basic	-10.0847
%	-10.0848
▁favor	-10.0848
▁chemistry	-10.0849
▁dancing	-10.0849
▁terrific	-10.0849
▁channel	-10.0849
▁graphic	-10.0849
▁giant	-10.0849
▁clothes	-10.0849
▁initial	-10.0849
▁century	-10.0849
▁government	-10.0849
▁pretend	-10.0849
▁folks	-10.0849
▁information	-10.085
▁window	-10.085
▁Paris	-10.085
▁Jeff	-10.085
▁dump	-10.0851
▁knowledge	-10.0851
▁Su	-10.0852
▁Eddie	-10.0853
▁Christian	-10.0853
▁passion	-10.0854
▁Russian	-10.0855
▁Julie	-10.0855
▁Italian	-10.0855
ath	-10.0857
▁pathetic	-10.0858
▁tired	-10.0858
ball	-10.0866
▁laughable	-10.0868
▁Robin	-10.087
▁Ch	-10.0874
▁pa	-10.0876
▁Steven	-10.0877
▁unfortunately	-10.0882
▁acts	-10.0882
▁endless	-10.0884
▁sucked	-10.0894
▁smile	-10.0924
▁mad	-10.0928
▁inept	-10.0934
▁plan	-10.0942
▁appeared	-10.0944
▁followed	-10.0951
ank	-10.0952
▁changed	-10.0959
▁arts	-10.0964
▁detail	-10.0974
▁toward	-10.098
ible	-10.0983
▁vi	-10.1021
fe	-10.103
▁cha	-10.1036
▁ro	-10.1037
▁12	-10.1039
rated	-10.1041
oth	-10.1043
▁hat	-10.1044
▁suck	-10.1044
dom	-10.1044
▁remembered	-10.1073
ski	-10.1085
shi	-10.1095
▁fat	-10.1106
▁aliens	-10.1115
ane	-10.1133
play	-10.1151
▁entertain	-10.1159
▁ho	-10.1159
▁magic	-10.1165
▁ne	-10.1174
***	-10.1185
down	-10.119
▁seven	-10.12
back	-10.12
budget	-10.1203
▁drink	-10.1207
▁aside	-10.1219
▁relationships	-10.1219
▁drugs	-10.1222
▁suppose	-10.123
▁drop	-10.1232
▁frame	-10.1241
▁million	-10.1261
▁introduce	-10.1265
▁THIS	-10.1265
▁encounter	-10.1265
▁exchange	-10.1265
▁excited	-10.1265
▁imagination	-10.1265
▁werewolf	-10.1265
▁court	-10.1265
▁content	-10.1265
▁flesh	-10.1266
▁angry	-10.1266
▁curious	-10.1266
▁impressive	-10.1266
▁dying	-10.1267
▁epic	-10.1267
▁Andrew	-10.1267
▁wooden	-10.1268
▁gem	-10.1269
▁sensitive	-10.1269
▁engaging	-10.127
▁temp	-10.1273
▁forgotten	-10.1274
az	-10.1275
▁terrorist	-10.1276
▁African	-10.1277
▁gift	-10.1278
▁House	-10.1279
▁model	-10.1279
▁connect	-10.128
▁field	-10.1287
▁concerned	-10.1292
▁City	-10.1296
lor	-10.13
▁Germany	-10.1304
▁surrounding	-10.1306
▁seek	-10.1321
▁normally	-10.1325
▁recall	-10.1327
▁Ne	-10.133
▁X	-10.1338
▁sing	-10.1341
▁ideas	-10.1358
▁Pre	-10.1358
▁scare	-10.1385
▁Mor	-10.1396
▁protagonist	-10.1403
▁zombie	-10.1406
▁object	-10.1408
▁flashback	-10.1409
▁issue	-10.1421
▁claim	-10.1424
ature	-10.1429
▁DO	-10.1444
den	-10.1445
ise	-10.145
▁thanks	-10.1463
▁pictures	-10.1464
▁reach	-10.1465
▁sacrifice	-10.1468
▁Williams	-10.1476
▁players	-10.1497
▁victims	-10.15
▁results	-10.1537
looking	-10.1552
▁Mu	-10.1558
coming	-10.1559
50	-10.1572
ought	-10.1586
▁tend	-10.1594
▁provides	-10.161
cha	-10.1618
▁cra	-10.162
▁alien	-10.1627
▁cl	-10.1635
▁Tall	-10.1647
▁destroy	-10.1653
▁listen	-10.1653
▁random	-10.1657
▁appropriate	-10.1658
▁mental	-10.1658
▁involve	-10.1663
▁seeming	-10.1668
No	-10.167
▁ha	-10.167
▁base	-10.1675
▁sees	-10.1691
▁clue	-10.1699
▁affair	-10.17
▁current	-10.17
▁journey	-10.17
▁nasty	-10.17
▁practical	-10.17
▁remote	-10.17
▁segment	-10.17
▁damn	-10.17
▁floor	-10.17
▁Nazi	-10.17
▁FBI	-10.17
▁comedic	-10.17
▁ugly	-10.1701
Captain	-10.1701
▁narration	-10.1701
▁Kelly	-10.1701
▁baby	-10.1701
▁disappointment	-10.1701
▁combination	-10.1702
▁unnecessary	-10.1702
long	-10.1702
▁thus	-10.1703
gue	-10.1703
▁Arthur	-10.1705
▁punch	-10.1705
▁tight	-10.1706
Since	-10.1706
▁Blue	-10.1707
▁stolen	-10.171
▁confused	-10.1711
▁60	-10.1712
▁guard	-10.1713
▁somewhere	-10.1714
▁virtual	-10.1718
▁Pol	-10.1721
▁soft	-10.1724
▁joy	-10.1724
▁Sure	-10.1724
▁gory	-10.1724
▁leg	-10.1724
▁crack	-10.1732
▁delightful	-10.1733
▁Other	-10.1741
▁singer	-10.1743
tz	-10.1747
▁board	-10.1756
CH	-10.1766
▁delivered	-10.1779
▁Time	-10.1783
▁likely	-10.1783
nn	-10.1805
▁cameo	-10.1809
cho	-10.1812
▁speaking	-10.1821
ki	-10.1823
▁Ke	-10.1848
▁stayed	-10.1852
▁contain	-10.1879
▁stereotype	-10.1893
▁meeting	-10.1902
▁Hell	-10.1904
▁Bu	-10.1935
they	-10.1956
▁Con	-10.196
▁includes	-10.196
▁creat	-10.1969
▁pe	-10.1986
▁contains	-10.1986
▁placed	-10.1993
Man	-10.1996
OR	-10.2004
low	-10.2014
ale	-10.2034
▁heads	-10.2038
▁putt	-10.2039
ough	-10.2051
mb	-10.2057
IN	-10.206
▁draw	-10.2079
▁lovers	-10.2081
▁artist	-10.2087
When	-10.2092
horror	-10.2092
▁hu	-10.2098
get	-10.2104
▁produce	-10.2109
uc	-10.2109
Re	-10.211
▁forces	-10.2115
▁promise	-10.2117
▁trick	-10.2124
tch	-10.2124
▁LA	-10.2126
▁news	-10.2137
▁Festival	-10.2155
▁blonde	-10.2155
▁breath	-10.2155
▁poverty	-10.2155
▁propaganda	-10.2155
▁regular	-10.2155
▁rubbish	-10.2155
▁unrealistic	-10.2155
▁Brown	-10.2155
▁Christmas	-10.2155
▁rescue	-10.2155
▁structure	-10.2155
▁dude	-10.2155
▁behavior	-10.2156
▁sword	-10.2156
▁community	-10.2157
▁Angel	-10.2157
▁apartment	-10.2158
▁six	-10.2158
▁stock	-10.2158
▁dislike	-10.2158
wood	-10.2159
▁Dennis	-10.2159
▁clean	-10.2162
▁shop	-10.2163
▁sake	-10.2163
▁necessary	-10.2165
▁debut	-10.2167
▁horse	-10.2167
▁Edward	-10.2167
▁Page	-10.2167
▁Out	-10.2167
▁photography	-10.2171
▁Dracula	-10.2171
▁born	-10.2172
▁bigger	-10.2175
▁vision	-10.2178
▁express	-10.218
▁irritating	-10.218
▁Dean	-10.2184
▁afraid	-10.219
▁load	-10.2196
▁owner	-10.2203
▁flying	-10.2205
▁finished	-10.2211
▁Hard	-10.2216
▁loss	-10.2217
▁page	-10.2219
▁explained	-10.2223
cer	-10.2225
▁tie	-10.2234
▁rank	-10.224
▁Miss	-10.2244
ans	-10.2252
▁gr	-10.2262
▁hits	-10.2266
▁personally	-10.2268
▁Any	-10.2268
aking	-10.2268
▁award	-10.2292
▁deserve	-10.2304
▁saved	-10.2305
ink	-10.2309
▁asks	-10.2324
▁image	-10.2341
▁forever	-10.2344
any	-10.2354
▁teenager	-10.2356
ative	-10.2356
▁pan	-10.2359
lot	-10.2372
ire	-10.2385
port	-10.2401
▁lacking	-10.2409
▁objects	-10.2468
▁Ki	-10.2479
▁compar	-10.2488
▁occasion	-10.2496
▁mainly	-10.2505
▁record	-10.2523
▁places	-10.2538
▁BE	-10.2544
▁burn	-10.255
▁emotions	-10.2554
▁cuts	-10.2556
wise	-10.2561
cher	-10.2563
▁San	-10.2566
Z	-10.2567
▁standards	-10.2568
rie	-10.257
Now	-10.2575
▁mar	-10.2581
▁aspects	-10.2584
especially	-10.2589
till	-10.2589
▁fill	-10.2599
▁date	-10.2603
bert	-10.2605
▁terribl	-10.2607
ini	-10.2613
lan	-10.2616
▁approach	-10.2621
▁product	-10.2626
▁affect	-10.2628
▁popular	-10.2628
▁represent	-10.2629
▁amateur	-10.2629
▁California	-10.2631
▁Holmes	-10.2631
▁Lugosi	-10.2631
▁Massacre	-10.2631
▁Mexican	-10.2631
▁Murphy	-10.2631
▁Stephen	-10.2631
▁awkward	-10.2631
▁belief	-10.2631
▁crook	-10.2631
▁experiment	-10.2631
▁memories	-10.2631
▁motivation	-10.2631
▁print	-10.2631
▁study	-10.2631
▁subtitles	-10.2631
▁technique	-10.2631
▁tragedy	-10.2631
▁unexpected	-10.2631
▁Daisy	-10.2631
▁crowd	-10.2631
▁pleasure	-10.2631
▁funnier	-10.2631
▁ladies	-10.2631
▁memory	-10.2631
▁nightmare	-10.2631
▁Western	-10.2631
▁zero	-10.2631
▁Ryan	-10.2631
▁phone	-10.2631
▁1970	-10.2631
▁Harold	-10.2631
▁influence	-10.2632
▁witty	-10.2632
▁tree	-10.2632
▁harsh	-10.2632
▁blind	-10.2632
▁existence	-10.2632
▁boyfriend	-10.2632
▁relief	-10.2632
▁food	-10.2633
▁dangerous	-10.2633
▁Je	-10.2633
▁Danny	-10.2634
▁handsome	-10.2634
▁opportunity	-10.2635
Don	-10.2636
▁twin	-10.2637
▁Island	-10.2638
▁chosen	-10.2639
▁personality	-10.2639
▁fictional	-10.2641
▁mid	-10.2641
▁fell	-10.2643
▁Show	-10.2646
▁Marie	-10.265
▁Penn	-10.265
▁humanity	-10.265
rey	-10.2654
▁rental	-10.2657
▁mom	-10.2658
▁Alan	-10.2659
▁grade	-10.266
▁cares	-10.2664
▁Director	-10.2664
▁justice	-10.2668
▁below	-10.2671
▁driver	-10.2672
▁Yet	-10.2676
▁received	-10.2682
▁emotionally	-10.2704
pping	-10.2706
▁Wars	-10.2712
▁safe	-10.2714
lock	-10.2724
▁Part	-10.2732
▁gut	-10.2747
▁focused	-10.2748
▁finale	-10.2755
▁overly	-10.2762
▁murderer	-10.2765
▁Tim	-10.2781
▁prefer	-10.2782
▁references	-10.2784
itch	-10.2785
▁include	-10.2804
run	-10.2825
La	-10.2826
▁proves	-10.2827
▁rape	-10.2833
▁interview	-10.2839
▁skill	-10.2844
▁reviewers	-10.2851
▁member	-10.2856
head	-10.2858
!).	-10.2859
ON	-10.2861
▁bus	-10.2881
▁worthy	-10.2891
▁definite	-10.2894
▁costumes	-10.2901
tuck	-10.2906
▁sole	-10.2918
▁refuse	-10.2919
LY	-10.2919
LE	-10.2925
▁Cr	-10.2931
ker	-10.2946
more	-10.2969
▁Col	-10.2997
▁hire	-10.3006
▁arriv	-10.3006
ong	-10.3021
ka	-10.3031
mate	-10.3031
▁area	-10.3034
board	-10.304
▁sa	-10.3043
EN	-10.305
▁fu	-10.3051
▁flow	-10.3062
just	-10.3068
With	-10.3069
although	-10.3077
▁jo	-10.3086
▁sell	-10.3089
▁absolute	-10.309
▁Wa	-10.3092
▁levels	-10.3094
▁u	-10.3101
??	-10.311
!!!!	-10.3128
▁Karloff	-10.3131
▁Spanish	-10.3131
▁Texas	-10.3131
▁built	-10.3131
▁disagree	-10.3131
▁fascinating	-10.3131
▁horribly	-10.3131
▁jungle	-10.3131
▁recognize	-10.3131
▁Smith	-10.3131
▁sharp	-10.3131
▁Space	-10.3131
▁rival	-10.3131
▁trial	-10.3131
▁grace	-10.3131
▁target	-10.3131
▁Clark	-10.3131
▁South	-10.3131
▁subplot	-10.3132
▁legendary	-10.3132
▁childhood	-10.3132
▁Lord	-10.3132
▁latter	-10.3132
▁jail	-10.3132
▁luck	-10.3132
▁everybody	-10.3133
▁exploitation	-10.3134
Everything	-10.3136
▁Warner	-10.3136
▁Cagney	-10.3136
▁statement	-10.3136
▁Max	-10.3136
▁remarkable	-10.3137
▁dare	-10.3137
▁Ruth	-10.3137
▁movement	-10.3137
▁insight	-10.3139
▁Crawford	-10.3139
▁Street	-10.3141
▁Julia	-10.3143
▁Daniel	-10.3146
▁Poor	-10.3151
▁Dick	-10.3154
▁ignore	-10.3155
▁craft	-10.3156
▁Sho	-10.3162
▁Killer	-10.3164
actor	-10.3164
▁rap	-10.3173
ett	-10.3176
▁driven	-10.3186
iest	-10.3187
Le	-10.3188
▁closer	-10.319
▁included	-10.3195
▁Far	-10.3197
▁Pri	-10.3203
igh	-10.3211
▁generally	-10.3229
▁mut	-10.3231
▁wearing	-10.3231
▁watchable	-10.3232
ou	-10.3238
▁bloody	-10.3245
▁portray	-10.3249
ana	-10.3262
used	-10.3268
▁feelings	-10.3275
▁appealing	-10.3279
▁experienced	-10.3281
▁wise	-10.3297
▁Bro	-10.3303
▁Lou	-10.3307
▁speaks	-10.3312
10	-10.3313
▁months	-10.3338
▁Bar	-10.3341
Mar	-10.3356
ES	-10.336
ified	-10.3361
ris	-10.3365
▁soldier	-10.3366
▁costume	-10.3366
aged	-10.337
▁victim	-10.3372
▁producer	-10.3392
ED	-10.3396
▁supposedly	-10.3405
▁sw	-10.3406
lip	-10.3417
▁rule	-10.344
▁Pa	-10.3452
▁em	-10.3478
▁flashbacks	-10.3478
▁depend	-10.3485
ide	-10.3486
▁details	-10.3494
▁Fi	-10.3495
▁exceptional	-10.3499
▁helped	-10.351
see	-10.3522
▁Cat	-10.3523
▁imp	-10.3537
lish	-10.3545
cast	-10.3554
▁Big	-10.3571
what	-10.3575
▁addition	-10.3583
VERY	-10.3584
▁der	-10.3587
▁spoil	-10.359
▁Mon	-10.3593
film	-10.3595
ping	-10.3601
good	-10.3606
▁High	-10.3616
▁desire	-10.3621
▁torture	-10.3622
▁ultimate	-10.3624
story	-10.3629
▁cry	-10.363
uring	-10.3644
▁Fran	-10.365
▁ju	-10.3651
▁Alex	-10.3653
▁Gene	-10.3654
▁Life	-10.3654
▁danger	-10.3655
▁office	-10.3656
▁photo	-10.3657
▁Britain	-10.3657
▁Dafoe	-10.3657
▁Douglas	-10.3657
▁Inuyasha	-10.3657
▁execution	-10.3657
▁lesbian	-10.3657
▁perspective	-10.3657
▁regret	-10.3657
▁separate	-10.3657
▁substance	-10.3657
▁system	-10.3657
▁yeah	-10.3657
▁balance	-10.3657
▁cruel	-10.3657
▁abilities	-10.3657
▁stunt	-10.3657
▁entry	-10.3657
▁wander	-10.3657
▁distinct	-10.3658
▁foreign	-10.3658
▁fault	-10.3658
▁intense	-10.3658
▁Miller	-10.3659
▁friendship	-10.366
▁Louie	-10.3661
▁16	-10.3662
▁demon	-10.3662
▁refreshing	-10.3662
▁embarrassing	-10.3662
▁:)	-10.3662
▁skin	-10.3664
▁challenge	-10.3666
▁somebody	-10.3669
▁Jenni	-10.3669
▁Parker	-10.3669
▁hopeless	-10.3671
▁ALL	-10.3672
▁Both	-10.3673
▁rain	-10.3673
▁humorous	-10.3673
▁blown	-10.3674
▁Asian	-10.3675
▁Rose	-10.3676
▁independent	-10.3679
▁k	-10.3684
blo	-10.3689
▁Mark	-10.3692
▁disturbing	-10.3693
▁desert	-10.3694
retty	-10.3694
bit	-10.3702
▁Ten	-10.3703
▁18	-10.3708
▁deserved	-10.3711
▁ruined	-10.372
mar	-10.3722
▁def	-10.3725
▁wind	-10.3729
lash	-10.3734
▁marr	-10.3741
▁deeply	-10.3747
uff	-10.375
Lo	-10.3751
▁cr	-10.3757
▁artistic	-10.3762
tting	-10.3772
▁brilliantly	-10.3777
▁cap	-10.3779
▁fly	-10.3794
▁Bre	-10.3803
▁Bas	-10.3803
▁hir	-10.3805
RE	-10.3807
don	-10.3823
unch	-10.3836
▁Lu	-10.3841
ists	-10.3846
nder	-10.3853
▁praise	-10.3853
▁Hav	-10.3892
▁blow	-10.3901
ave	-10.3903
▁powers	-10.3907
▁Indian	-10.3908
▁costs	-10.3909
cing	-10.391
▁device	-10.3918
▁Lea	-10.3921
▁tear	-10.3938
cap	-10.3941
---	-10.3949
▁rules	-10.3957
!!!!!	-10.3957
▁soldiers	-10.3958
▁guessing	-10.3968
▁interviews	-10.3974
aff	-10.3992
▁Chris	-10.401
▁loves	-10.4056
▁11	-10.4058
there	-10.4066
ite	-10.4079
▁clichés	-10.4092
▁unit	-10.41
▁students	-10.4107
ending	-10.4115
▁Mac	-10.4118
▁efforts	-10.4124
▁Am	-10.4124
▁themes	-10.4126
▁Pi	-10.4144
After	-10.415
from	-10.415
Whil	-10.4151
▁combine	-10.4156
oh	-10.416
ino	-10.4164
Well	-10.4165
▁constant	-10.4171
▁apparent	-10.4172
hero	-10.4173
▁raise	-10.4178
elle	-10.4179
ft	-10.4179
▁mine	-10.418
ural	-10.4195
read	-10.4208
▁consist	-10.4212
▁fool	-10.4212
▁min	-10.4213
▁Chinese	-10.4213
▁VHS	-10.4213
▁gorgeous	-10.4213
▁ordinary	-10.4213
▁reflect	-10.4213
▁atrocious	-10.4213
▁dinner	-10.4213
▁false	-10.4213
▁funniest	-10.4213
▁changing	-10.4213
▁nonsense	-10.4213
▁central	-10.4213
▁stretch	-10.4213
▁psychological	-10.4213
▁Lucas	-10.4213
▁gripping	-10.4213
▁pacing	-10.4213
▁Irish	-10.4213
▁identity	-10.4214
▁forgot	-10.4214
▁overdone	-10.4214
▁chick	-10.4214
▁Bobby	-10.4214
▁Chaney	-10.4214
▁consistent	-10.4214
▁cash	-10.4215
▁unfunny	-10.4215
Before	-10.4215
▁creative	-10.4215
▁magnificent	-10.4215
▁Brian	-10.4215
▁threaten	-10.4216
▁Fox	-10.4216
▁everywhere	-10.4217
▁gross	-10.4217
▁capable	-10.4217
▁Squall	-10.4218
▁Bruce	-10.4218
▁Which	-10.4218
▁pretentious	-10.4218
▁Saturday	-10.4219
▁gold	-10.422
▁Queen	-10.4222
▁invent	-10.4222
▁Plus	-10.4222
▁green	-10.4224
▁Apparently	-10.4226
gging	-10.4228
▁Young	-10.4228
▁Johnson	-10.4228
▁laughter	-10.4229
▁?	-10.4232
▁Ku	-10.4232
▁Okay	-10.4233
▁Bear	-10.4234
▁gotten	-10.4234
▁Please	-10.4237
▁Nothing	-10.4237
▁Saw	-10.4238
▁None	-10.424
▁Hall	-10.4242
▁raised	-10.4249
▁pity	-10.4256
▁delivers	-10.4263
▁belong	-10.4263
Be	-10.4271
On	-10.4293
▁painfully	-10.4297
▁ON	-10.4301
▁bag	-10.431
1)	-10.4314
▁ball	-10.432
▁lower	-10.4335
ept	-10.4349
▁lies	-10.4355
▁noir	-10.4362
▁focuse	-10.4364
▁training	-10.4365
▁sadly	-10.4372
key	-10.4383
specially	-10.4383
???	-10.4384
▁dollars	-10.4393
AT	-10.4396
▁met	-10.441
▁ba	-10.4411
▁Gra	-10.4415
where	-10.4428
▁fla	-10.4435
sky	-10.4467
ona	-10.447
▁serve	-10.4474
▁sisters	-10.4481
▁Are	-10.4486
▁fully	-10.4493
een	-10.4498
▁cars	-10.4504
▁pi	-10.4513
AL	-10.452
▁Roger	-10.4523
agon	-10.453
▁featur	-10.4542
▁filmmaker	-10.4552
bel	-10.4556
▁animal	-10.457
▁sal	-10.4578
▁site	-10.4583
▁Ya	-10.4591
▁numbers	-10.4595
▁investigate	-10.4605
▁com	-10.4606
▁scares	-10.461
▁struggl	-10.4627
▁Rock	-10.463
wan	-10.4657
▁player	-10.4658
▁topic	-10.4662
IT	-10.4665
▁Pat	-10.4674
erman	-10.4694
▁z	-10.4709
▁plots	-10.4714
Fi	-10.473
friend	-10.4732
except	-10.4738
Robert	-10.4738
ump	-10.4741
▁peace	-10.4743
▁surround	-10.4744
fest	-10.4745
▁vampires	-10.4746
▁/>(	-10.4763
made	-10.4767
Of	-10.4768
lf	-10.4772
▁relate	-10.4774
ali	-10.4782
Tom	-10.4783
▁East	-10.4784
▁flash	-10.4796
▁strip	-10.4801
▁environment	-10.4801
▁grave	-10.4801
ternational	-10.4801
▁1930	-10.4801
▁Actually	-10.4801
▁Channel	-10.4801
▁Hitler	-10.4801
▁Jewish	-10.4801
▁Philip	-10.4801
▁religion	-10.4801
▁research	-10.4801
▁spoof	-10.4801
▁subsequent	-10.4801
▁theatrical	-10.4801
▁crush	-10.4801
▁Girl	-10.4801
▁overcome	-10.4801
▁estate	-10.4801
▁nude	-10.4801
▁1980	-10.4801
▁welcome	-10.4801
▁ashamed	-10.4802
▁shallow	-10.4802
▁morning	-10.4802
▁spectacular	-10.4802
▁argument	-10.4802
▁twice	-10.4802
▁narrator	-10.4803
▁Year	-10.4803
▁Juan	-10.4803
▁Bollywood	-10.4803
▁bump	-10.4804
▁national	-10.4805
▁embarrassed	-10.4805
▁Green	-10.4806
▁anybody	-10.4808
▁Hank	-10.4808
▁dry	-10.4808
▁childish	-10.4809
▁Howard	-10.4809
▁Costello	-10.4811
▁goofy	-10.4813
▁hotel	-10.4813
▁monsters	-10.4815
▁promising	-10.4815
▁$	-10.4817
▁east	-10.4818
▁drivel	-10.4819
▁Second	-10.4823
▁wo	-10.4826
▁stalk	-10.483
rid	-10.483
▁Call	-10.4831
▁table	-10.4833
▁stumble	-10.4833
▁originality	-10.4838
▁Anne	-10.4843
▁counter	-10.4843
▁aware	-10.4843
▁choose	-10.4844
▁heroes	-10.4845
arious	-10.4846
▁warning	-10.4854
▁insulting	-10.4856
▁portraying	-10.4869
hy	-10.4871
▁shocked	-10.4875
They	-10.4879
▁scared	-10.4888
▁hanging	-10.4891
rap	-10.4901
▁critics	-10.492
▁poster	-10.4923
▁trans	-10.4949
▁whi	-10.4951
▁clips	-10.4974
▁heck	-10.498
▁har	-10.498
ometimes	-10.499
dent	-10.4994
▁plant	-10.5014
▁theaters	-10.5015
▁Hills	-10.5027
▁holes	-10.503
ung	-10.5033
▁author	-10.5034
▁vs	-10.5037
▁Frances	-10.5047
ital	-10.505
can	-10.5057
▁ahead	-10.5064
immer	-10.5064
▁arrives	-10.5072
Dir	-10.5078
▁card	-10.5084
Ca	-10.5105
▁ham	-10.5105
reak	-10.513
▁flaw	-10.5141
▁parent	-10.5142
▁idiot	-10.5146
ction	-10.5158
are	-10.5159
▁im	-10.5163
▁calling	-10.5164
▁cost	-10.5165
UN	-10.522
TER	-10.5237
corporate	-10.5244
his	-10.5254
▁teens	-10.5271
▁starting	-10.5294
aut	-10.5325
▁ja	-10.5343
▁complain	-10.535
▁thank	-10.5352
class	-10.5363
book	-10.5363
series	-10.5367
▁insult	-10.5368
Star	-10.5374
▁pla	-10.538
▁delight	-10.5384
verly	-10.5386
▁unfortunate	-10.5386
▁intrigue	-10.5389
▁mor	-10.5393
▁bull	-10.5398
core	-10.5402
▁bill	-10.5403
▁holds	-10.5404
▁correct	-10.5413
▁Africa	-10.5416
▁path	-10.5416
▁crash	-10.5421
▁Scar	-10.5422
robably	-10.5425
▁slave	-10.5426
▁civil	-10.5426
▁Duvall	-10.5426
▁Georgia	-10.5426
▁Macauley	-10.5426
▁Mitchum	-10.5426
▁President	-10.5426
▁Snoopy	-10.5426
▁Soviet	-10.5426
▁Taylor	-10.5426
▁colour	-10.5426
▁deliberate	-10.5426
▁frightening	-10.5426
▁obnoxious	-10.5426
▁politics	-10.5426
▁qualities	-10.5426
▁scheme	-10.5426
▁service	-10.5426
▁significant	-10.5426
▁slapstick	-10.5426
▁MGM	-10.5426
▁WWII	-10.5426
▁depressing	-10.5426
▁innocence	-10.5426
▁speech	-10.5426
▁sympathetic	-10.5426
▁twenty	-10.5426
▁enemy	-10.5426
▁unfold	-10.5426
▁task	-10.5426
▁blue	-10.5426
▁empty	-10.5426
▁fame	-10.5426
▁prevent	-10.5426
▁expert	-10.5426
▁convey	-10.5426
▁showcase	-10.5426
▁Dunne	-10.5426
conscious	-10.5427
▁Old	-10.5427
▁Jessi	-10.5427
▁1940	-10.5427
▁Helen	-10.5427
▁Blair	-10.5427
▁195	-10.5427
▁Wilson	-10.5427
▁Wolf	-10.5427
▁quit	-10.5427
▁ripped	-10.5428
▁Barry	-10.5428
▁Terror	-10.5428
▁Alice	-10.5428
▁winner	-10.5429
▁transform	-10.5429
▁eight	-10.5429
▁underrated	-10.543
rrol	-10.543
▁sitcom	-10.543
▁neat	-10.543
▁technology	-10.543
▁media	-10.5431
▁insane	-10.5431
▁Dark	-10.5431
▁nomination	-10.5431
▁Mason	-10.5432
▁offensive	-10.5432
▁responsible	-10.5432
▁Prince	-10.5433
▁heroine	-10.5433
▁atmospheric	-10.5434
▁severe	-10.5435
▁bow	-10.5435
▁Much	-10.5436
▁Connor	-10.5437
▁rush	-10.5438
▁army	-10.5441
▁25	-10.5443
▁Barbar	-10.5444
▁Rocky	-10.5454
▁began	-10.5456
▁realism	-10.5458
▁bound	-10.5458
▁cur	-10.5459
▁loving	-10.546
▁Force	-10.5461
▁Sadly	-10.5463
▁limited	-10.5464
▁Last	-10.547
cal	-10.5473
name	-10.5473
▁lying	-10.5482
dimensional	-10.5485
▁Nu	-10.5493
▁Woody	-10.5497
▁unlikely	-10.5501
▁explor	-10.5504
▁oh	-10.551
▁angles	-10.5513
▁searching	-10.5522
▁rat	-10.5524
▁fate	-10.5536
▁screaming	-10.5541
▁beach	-10.5552
▁woods	-10.5567
▁paced	-10.5572
▁accents	-10.5576
▁warm	-10.5577
▁sum	-10.5596
▁talked	-10.5599
ax	-10.5602
▁Port	-10.5603
▁walking	-10.5618
▁asked	-10.5626
hu	-10.5633
▁higher	-10.5651
3)	-10.568
ili	-10.5683
▁lived	-10.5689
▁willing	-10.5693
▁fail	-10.5699
▁fi	-10.5703
mber	-10.5704
▁Shi	-10.5715
bie	-10.5745
▁animals	-10.5748
rash	-10.5758
▁sur	-10.5759
▁beautifully	-10.5768
▁**	-10.5769
▁continu	-10.5778
cul	-10.5788
▁ni	-10.5791
▁Power	-10.5797
▁highlight	-10.5804
urg	-10.5812
▁reviewer	-10.5858
▁Ken	-10.5884
ease	-10.5899
▁SO	-10.5903
Joe	-10.5918
rting	-10.5921
Jo	-10.5921
ark	-10.5923
▁ec	-10.593
▁gangsters	-10.5948
▁arrive	-10.5958
▁terror	-10.5973
▁disc	-10.5978
▁TO	-10.5986
▁streets	-10.5988
ition	-10.6012
▁deals	-10.6014
▁pur	-10.6014
▁continues	-10.6015
`	-10.6028
Also	-10.603
▁kiss	-10.6034
▁command	-10.6037
▁hook	-10.605
▁achieve	-10.606
▁ear	-10.6073
▁whil	-10.6076
▁Park	-10.6084
▁confront	-10.609
▁Thomas	-10.6093
▁Vinnie	-10.6093
▁cheese	-10.6093
▁contrast	-10.6093
▁corrupt	-10.6093
▁evident	-10.6093
▁excitement	-10.6093
▁frankly	-10.6093
▁frequent	-10.6093
▁installment	-10.6093
▁intimate	-10.6093
▁parody	-10.6093
▁scenario	-10.6093
▁unconvincing	-10.6093
▁unwatchable	-10.6093
▁veteran	-10.6093
▁piano	-10.6093
▁Stalin	-10.6093
▁lousy	-10.6093
▁honor	-10.6093
▁Emma	-10.6093
▁hiding	-10.6093
▁proud	-10.6093
▁revolution	-10.6093
▁therefore	-10.6093
▁vicious	-10.6093
▁transition	-10.6093
▁turkey	-10.6093
▁context	-10.6093
▁stereotypical	-10.6093
▁Otherwise	-10.6093
▁switch	-10.6093
▁failure	-10.6094
▁scale	-10.6094
▁repetitive	-10.6094
▁Devil	-10.6094
▁extend	-10.6094
▁operation	-10.6094
▁sentimental	-10.6094
▁winning	-10.6095
▁obsession	-10.6096
▁Nice	-10.6096
▁theatre	-10.6096
▁feet	-10.6097
▁toilet	-10.6097
▁Jose	-10.6097
▁Khan	-10.6097
▁contrived	-10.6098
▁executed	-10.6099
▁investigation	-10.6099
▁spare	-10.61
tiny	-10.6101
▁biker	-10.6101
▁classics	-10.6102
▁cutting	-10.6103
▁Russell	-10.6104
▁Keane	-10.6105
▁text	-10.6105
▁edited	-10.6108
▁Friday	-10.6108
▁Story	-10.611
▁sold	-10.6111
▁cow	-10.6112
▁tense	-10.6114
▁disgusting	-10.6115
▁guilty	-10.6115
▁Vince	-10.6115
▁mindless	-10.6116
▁patient	-10.6117
hood	-10.6119
Wizard	-10.612
▁Myers	-10.6121
▁dire	-10.6121
▁Gre	-10.6126
▁forgettable	-10.6126
▁Donald	-10.6127
▁finest	-10.6129
chi	-10.6131
theless	-10.6131
▁Never	-10.6134
ked	-10.6135
▁drawn	-10.6139
▁Mom	-10.6139
▁reasonable	-10.6142
▁workers	-10.6165
lia	-10.6166
▁revealed	-10.6173
▁naturally	-10.6173
▁weight	-10.6176
▁cell	-10.6185
▁campy	-10.6187
aud	-10.6188
▁lock	-10.6189
▁according	-10.6191
▁soap	-10.6194
▁attacked	-10.6199
artial	-10.6208
▁sincere	-10.6214
▁sav	-10.6222
▁maker	-10.6242
▁discovered	-10.6249
▁returned	-10.625
ization	-10.6261
ility	-10.6269
▁Count	-10.6288
▁intention	-10.6304
▁May	-10.6305
▁investigat	-10.6314
▁west	-10.6338
▁Mel	-10.6339
▁returns	-10.6342
▁Christ	-10.6358
▁dealing	-10.636
Then	-10.6372
▁Ron	-10.6375
▁NO	-10.6389
▁helps	-10.6396
Har	-10.6398
▁solve	-10.6404
▁flaws	-10.641
win	-10.6417
▁Men	-10.6417
▁pit	-10.6423
?!	-10.6433
ple	-10.6463
▁Wi	-10.6478
▁fr	-10.6478
▁portrays	-10.6485
▁Give	-10.6486
car	-10.6486
law	-10.6492
▁pet	-10.6497
▁types	-10.6505
▁screenwriter	-10.651
▁month	-10.6516
▁France	-10.6519
▁Louis	-10.6521
ike	-10.6528
ugs	-10.6544
▁prime	-10.6558
sses	-10.6567
vy	-10.6582
▁plans	-10.6589
▁fighter	-10.6599
▁locations	-10.661
"...	-10.6628
▁youth	-10.6628
wo	-10.6668
▁games	-10.6675
tors	-10.6676
▁Quit	-10.6677
▁Mal	-10.67
▁skip	-10.6705
ix	-10.6716
losing	-10.6718
▁teach	-10.672
watch	-10.672
▁provid	-10.6728
bout	-10.6729
▁pack	-10.6736
writer	-10.6742
forward	-10.6744
Just	-10.6744
▁hearts	-10.6745
▁gas	-10.6745
Why	-10.6746
▁Liv	-10.6752
▁Sad	-10.6753
plot	-10.6754
▁photograph	-10.6757
rick	-10.6758
▁alter	-10.676
▁concern	-10.676
▁technical	-10.6763
▁equal	-10.6765
hard	-10.6769
▁pop	-10.6781
▁creep	-10.6782
▁chill	-10.6782
▁Carol	-10.6788
▁wi	-10.6797
gh	-10.6803
▁quest	-10.6803
▁obsess	-10.6804
▁improve	-10.6805
▁price	-10.6805
▁wanna	-10.6805
▁Frankenstein	-10.6807
▁account	-10.6807
▁revolve	-10.6807
_	-10.6807
▁2006	-10.6807
▁Benjamin	-10.6807
▁England	-10.6807
▁Kinski	-10.6807
▁Olivier	-10.6807
▁Olsen	-10.6807
▁Orphanage	-10.6807
▁Stanwyck	-10.6807
▁category	-10.6807
▁contemporar	-10.6807
▁courage	-10.6807
▁devoid	-10.6807
▁elaborate	-10.6807
▁energy	-10.6807
▁gratuitous	-10.6807
▁hysterical	-10.6807
▁inspiration	-10.6807
▁obscure	-10.6807
▁tribute	-10.6807
▁vehicle	-10.6807
▁virgin	-10.6807
▁wacky	-10.6807
▁widow	-10.6807
▁Family	-10.6807
▁clown	-10.6807
▁gritty	-10.6807
▁reject	-10.6807
▁universe	-10.6807
▁wreck	-10.6807
▁Lionel	-10.6807
▁erotic	-10.6807
▁status	-10.6807
▁Linda	-10.6807
▁junk	-10.6807
▁naive	-10.6807
▁pray	-10.6807
▁prior	-10.6807
▁Something	-10.6807
▁western	-10.6807
▁fifteen	-10.6807
▁heaven	-10.6807
▁introduction	-10.6807
▁minimal	-10.6807
▁defeat	-10.6807
▁legend	-10.6807
▁private	-10.6807
▁bridge	-10.6807
▁lift	-10.6808
▁Heaven	-10.6808
▁survivor	-10.6808
▁Police	-10.6808
▁numer	-10.6808
▁fellow	-10.6809
▁thick	-10.6809
▁finger	-10.6809
▁editor	-10.6809
▁spell	-10.681
▁amateurish	-10.681
▁Walter	-10.681
▁supreme	-10.681
▁fix	-10.681
▁Trek	-10.681
▁Kong	-10.681
▁sadistic	-10.6811
▁involvement	-10.6811
▁Bond	-10.6811
▁Water	-10.6811
▁sheriff	-10.6812
▁immigrant	-10.6812
▁Brando	-10.6812
▁meaningless	-10.6812
▁madness	-10.6812
▁Look	-10.6813
▁Chicago	-10.6814
▁dreadful	-10.6815
▁interaction	-10.6815
▁slice	-10.6815
▁1950	-10.6817
▁settle	-10.6817
▁reward	-10.6817
▁Eric	-10.6819
▁Yeah	-10.6819
▁Would	-10.6819
▁anywhere	-10.6819
▁corny	-10.682
▁oppos	-10.682
▁lust	-10.6821
▁seduce	-10.6821
▁satisfying	-10.6822
▁mass	-10.6822
▁fourth	-10.6823
▁Besides	-10.6824
▁lonely	-10.6825
▁General	-10.6829
▁dirty	-10.6829
▁Ross	-10.6833
▁Michell	-10.6833
▁discussion	-10.6834
▁Caine	-10.6834
▁Pro	-10.6835
▁partial	-10.6836
▁Music	-10.6837
▁sink	-10.6839
▁realise	-10.6843
▁shouting	-10.6844
▁Take	-10.6847
▁Nora	-10.6849
▁fl	-10.685
▁bitter	-10.6852
▁hunter	-10.6856
▁hooked	-10.6858
▁tricks	-10.6859
▁packed	-10.6862
▁Bay	-10.6862
▁loser	-10.6864
VE	-10.6874
▁semi	-10.6881
▁Wind	-10.6886
▁reached	-10.6887
▁Rob	-10.6888
▁Amy	-10.689
▁Long	-10.6894
▁sto	-10.6896
▁Ray	-10.6899
▁briefly	-10.69
▁gags	-10.6908
▁logical	-10.6908
▁drinking	-10.691
▁flower	-10.6911
▁dig	-10.6912
▁thrill	-10.6926
▁oil	-10.6927
▁provided	-10.6929
▁warn	-10.6934
▁EVER	-10.6939
▁North	-10.6943
▁Wal	-10.6946
sci	-10.6956
▁sat	-10.6956
▁becom	-10.6973
za	-10.6984
▁villains	-10.7006
▁mus	-10.7013
ory	-10.7013
ich	-10.7013
▁spoilers	-10.7024
▁importantly	-10.7047
▁Per	-10.7051
▁Cary	-10.7053
ular	-10.7073
▁farm	-10.7086
▁standing	-10.709
▁hip	-10.7092
umb	-10.7093
▁cops	-10.7104
▁Andre	-10.711
▁ideal	-10.7125
▁ru	-10.7126
▁Fo	-10.713
ria	-10.7131
other	-10.7133
▁Yu	-10.714
▁app	-10.7141
2)	-10.7147
▁serves	-10.7181
▁tears	-10.7202
▁devices	-10.7202
▁escapes	-10.7209
▁advance	-10.7212
was	-10.7213
▁theory	-10.7226
Terry	-10.7228
▁(200	-10.727
▁guest	-10.7277
▁hole	-10.7291
▁Va	-10.7292
new	-10.7295
uous	-10.7307
▁Han	-10.7316
▁accidental	-10.7347
▁Lin	-10.7347
gate	-10.7348
▁Hill	-10.7366
▁GO	-10.7379
▁crimes	-10.7394
▁hor	-10.7408
▁screening	-10.7414
▁Art	-10.7448
▁driv	-10.7451
cca	-10.7452
oney	-10.7458
▁creatures	-10.7458
IC	-10.7465
maker	-10.7473
▁Tri	-10.7478
▁explore	-10.748
▁scar	-10.7483
hr	-10.7496
▁weeks	-10.7506
style	-10.7507
view	-10.751
Final	-10.7511
paced	-10.7512
Anyway	-10.7513
First	-10.7513
SPOILERS	-10.7513
power	-10.7513
Peter	-10.7513
ability	-10.7514
AY	-10.7515
known	-10.7516
▁grab	-10.7517
ige	-10.7518
▁redeem	-10.7519
▁depict	-10.752
▁witness	-10.7521
load	-10.7522
▁limit	-10.7529
▁physical	-10.7533
ox	-10.7541
▁guilt	-10.755
Here	-10.7551
▁unbelievabl	-10.7552
▁doll	-10.7561
▁exact	-10.7563
▁stole	-10.7564
▁wood	-10.7564
▁progress	-10.7566
▁Cain	-10.7571
▁predict	-10.7572
▁exploit	-10.7573
▁document	-10.7575
▁gentle	-10.7576
▁birth	-10.7576
▁neighbor	-10.7576
é	-10.7576
▁Academy	-10.7576
▁Kevin	-10.7576
▁LOVE	-10.7576
▁MOVIE	-10.7576
▁Stewart	-10.7576
▁THAT	-10.7576
▁Vampire	-10.7576
▁Washington	-10.7576
▁airplane	-10.7576
▁chapter	-10.7576
▁consequences	-10.7576
▁disbelief	-10.7576
▁excruciating	-10.7576
▁extraordinary	-10.7576
▁families	-10.7576
▁festival	-10.7576
▁glimpse	-10.7576
▁inevitabl	-10.7576
▁practice	-10.7576
▁quirky	-10.7576
▁scientific	-10.7576
▁security	-10.7576
▁sketch	-10.7576
▁solution	-10.7576
▁stomach	-10.7576
▁sympathy	-10.7576
▁Canada	-10.7576
▁Turner	-10.7576
▁accompani	-10.7576
▁blatant	-10.7576
▁illegal	-10.7576
▁vivid	-10.7576
▁Jersey	-10.7576
▁Sandler	-10.7576
▁demonstrate	-10.7576
▁labor	-10.7576
▁riot	-10.7576
▁daily	-10.7576
▁lazy	-10.7576
▁strict	-10.7576
▁Dream	-10.7576
▁Owen	-10.7576
▁ultra	-10.7576
▁gather	-10.7576
▁Three	-10.7576
▁interrogat	-10.7576
▁Tripp	-10.7576
▁submit	-10.7576
▁Betty	-10.7576
4/10	-10.7576
▁neighborhood	-10.7577
▁Sarah	-10.7577
▁health	-10.7577
▁opposite	-10.7577
▁mountain	-10.7577
▁blockbuster	-10.7577
▁China	-10.7577
▁prostitute	-10.7577
uthern	-10.7577
▁criticism	-10.7577
▁Half	-10.7577
▁smoking	-10.7577
▁cultural	-10.7577
▁disease	-10.7577
▁bride	-10.7577
▁relation	-10.7578
▁shape	-10.7578
▁sentence	-10.7578
▁freedom	-10.7578
▁mask	-10.7578
▁'70	-10.7579
▁critical	-10.758
▁trade	-10.758
▁Witch	-10.758
▁Taka	-10.758
▁Duke	-10.7581
▁Universal	-10.7581
▁chuckle	-10.7581
▁commentary	-10.7581
▁hype	-10.7581
▁vast	-10.7581
▁proof	-10.7582
▁witch	-10.7582
▁Marc	-10.7583
▁pool	-10.7584
▁Return	-10.7584
▁importance	-10.7584
away	-10.7585
▁Zone	-10.7585
▁bla	-10.7585
▁host	-10.7586
main	-10.7587
▁overwhelming	-10.7588
▁Hook	-10.7588
▁weakest	-10.7589
▁liberal	-10.7589
▁cabin	-10.7589
▁concert	-10.759
▁Susan	-10.759
shift	-10.759
▁Bela	-10.7592
▁Jackie	-10.7593
▁Ex	-10.7594
▁Elizabeth	-10.7595
▁pile	-10.7596
▁attend	-10.7598
▁USA	-10.7598
▁defend	-10.7598
▁Finally	-10.76
▁Dog	-10.7601
▁Heart	-10.7601
▁position	-10.7601
ential	-10.7602
▁exists	-10.7603
▁Wow	-10.7609
▁Leonard	-10.7609
▁heroic	-10.761
▁broken	-10.761
▁Really	-10.7612
▁truck	-10.7617
▁haunted	-10.7617
▁steam	-10.7617
▁torn	-10.762
▁lay	-10.762
▁Avoid	-10.7621
acting	-10.7627
▁expose	-10.7632
▁Curt	-10.7638
gin	-10.7639
▁chilling	-10.7639
▁Paula	-10.7639
centr	-10.7641
▁dated	-10.7645
▁butcher	-10.765
▁Wally	-10.7651
▁appropriately	-10.7653
▁Kid	-10.7655
▁delivery	-10.7655
▁hood	-10.7655
▁abuse	-10.7661
▁manager	-10.7661
▁Lost	-10.7661
▁destroyed	-10.7662
▁crying	-10.7664
▁Gil	-10.7665
ection	-10.7665
▁entertained	-10.7667
▁mentally	-10.7671
▁appreciated	-10.7675
▁Mae	-10.768
▁Carl	-10.768
▁Mid	-10.768
▁Bra	-10.7684
▁politically	-10.7695
▁Mad	-10.7697
▁Hay	-10.7702
zer	-10.7704
▁Lesl	-10.7705
▁kidnappe	-10.7716
▁caus	-10.7716
▁suffering	-10.7721
ville	-10.7725
▁twisted	-10.7732
iff	-10.7739
lim	-10.7741
▁visuals	-10.7745
rna	-10.7747
▁auto	-10.7755
▁puzzle	-10.7766
▁pen	-10.7768
▁prop	-10.7775
too	-10.7779
▁arms	-10.778
▁Fin	-10.778
▁Brad	-10.7782
▁checked	-10.7782
▁shines	-10.7783
▁answers	-10.7794
marvelous	-10.7798
▁Brothers	-10.7807
▁Kar	-10.7809
▁van	-10.781
▁Del	-10.7814
urban	-10.7816
▁su	-10.7824
▁thousands	-10.7832
▁succeeds	-10.7833
▁sounded	-10.784
Pa	-10.7853
▁Bor	-10.7865
▁specific	-10.787
Ho	-10.788
action	-10.788
▁Harve	-10.7904
▁Powers	-10.793
▁highlights	-10.793
▁idiots	-10.7955
cop	-10.7967
▁Bal	-10.7969
▁breaks	-10.7993
zing	-10.8009
▁hunt	-10.8052
▁quote	-10.8057
▁dim	-10.8062
▁talks	-10.8103
live	-10.8107
▁Ko	-10.811
▁demand	-10.8111
▁occur	-10.8111
▁expression	-10.8116
▁reaction	-10.812
mart	-10.8129
▁zombies	-10.8132
ello	-10.8147
▁Los	-10.8147
*1/2	-10.8156
put	-10.8166
hand	-10.8173
▁Chan	-10.8183
called	-10.8223
bin	-10.8233
▁Cinema	-10.824
▁inner	-10.8243
▁Ang	-10.8254
▁pin	-10.8256
▁Win	-10.8273
body	-10.8299
▁repeat	-10.8302
▁format	-10.8302
▁user	-10.8311
▁Q	-10.8314
▁IN	-10.8321
▁adventures	-10.8333
▁explains	-10.8339
bone	-10.8345
4)	-10.8345
▁report	-10.8346
piece	-10.8346
screen	-10.8347
thriller	-10.8347
something	-10.8347
town	-10.8347
Every	-10.8349
However	-10.835
▁prov	-10.835
▁disturb	-10.8352
check	-10.8353
think	-10.8354
Even	-10.8356
ember	-10.8358
▁HA	-10.8362
▁wound	-10.8362
Fro	-10.8362
▁amaz	-10.8365
▁Vo	-10.8365
▁Roman	-10.8373
written	-10.8373
apped	-10.8383
▁dirt	-10.8385
now	-10.8388
▁via	-10.8393
▁broke	-10.8396
▁mode	-10.8396
▁collect	-10.8397
SE	-10.8399
▁screw	-10.8409
▁1990	-10.841
▁Ghost	-10.841
▁Travolta	-10.841
▁cannibal	-10.841
▁caricature	-10.841
▁holiday	-10.841
▁landscape	-10.841
Margaret	-10.841
▁9/11	-10.841
▁Bogart	-10.841
▁Buttermaker	-10.841
▁Josie	-10.841
▁Meanwhile	-10.841
▁NOTHING	-10.841
▁Public	-10.841
▁Steckler	-10.841
▁Tarantino	-10.841
▁alcohol	-10.841
▁chief	-10.841
▁church	-10.841
▁confess	-10.841
▁degree	-10.841
▁department	-10.841
▁errors	-10.841
▁exercise	-10.841
▁gruesome	-10.841
▁intensity	-10.841
▁patrol	-10.841
▁president	-10.841
▁priest	-10.841
▁profound	-10.841
▁psychic	-10.841
▁reputation	-10.841
▁resolution	-10.841
▁response	-10.841
▁sinister	-10.841
▁smooth	-10.841
▁suspicious	-10.841
▁trilogy	-10.841
▁identify	-10.841
▁miserable	-10.841
▁unexplained	-10.841
▁virus	-10.841
▁website	-10.841
▁blank	-10.841
▁casual	-10.841
▁swear	-10.841
▁MST	-10.841
▁afternoon	-10.841
▁agency	-10.841
▁Satan	-10.841
▁smoke	-10.841
▁tack	-10.841
▁organization	-10.841
▁breast	-10.841
▁heavi	-10.841
▁electric	-10.841
▁worry	-10.841
▁forgive	-10.841
▁dubbed	-10.841
▁trapped	-10.841
▁Barrymore	-10.841
▁cardboard	-10.841
▁royal	-10.841
▁monkey	-10.841
▁anime	-10.841
▁Palmer	-10.841
▁habit	-10.841
▁1999	-10.841
▁speed	-10.841
▁Shaft	-10.841
▁Kurt	-10.8411
▁Kill	-10.8411
▁liking	-10.8411
▁Powell	-10.8411
▁hostage	-10.8411
▁dropped	-10.8411
▁Walsh	-10.8411
▁stiff	-10.8411
▁uninspired	-10.8411
▁spread	-10.8411
▁depressed	-10.8411
▁Irene	-10.8411
▁massive	-10.8411
▁attraction	-10.8411
▁flee	-10.8412
▁uncomfortable	-10.8412
▁mobster	-10.8413
▁hack	-10.8413
▁wake	-10.8413
▁Australian	-10.8413
▁passage	-10.8414
▁rapid	-10.8414
▁invest	-10.8414
▁Carson	-10.8414
▁snow	-10.8414
▁block	-10.8414
▁stopped	-10.8414
▁repeated	-10.8414
▁string	-10.8414
▁Back	-10.8414
▁clock	-10.8415
▁bank	-10.8415
▁14	-10.8416
▁chest	-10.8416
▁hideous	-10.8417
▁indie	-10.8417
▁pig	-10.8418
▁45	-10.8418
▁Jackson	-10.8418
▁idiotic	-10.8418
▁Scorsese	-10.8418
▁Arnold	-10.8418
▁Later	-10.842
rry	-10.8421
▁bland	-10.8422
▁irony	-10.8422
▁cave	-10.8423
▁creator	-10.8423
▁Titanic	-10.8424
▁metal	-10.8426
▁Angeles	-10.8428
▁jerk	-10.843
▁Deep	-10.8431
▁faithful	-10.8431
▁nominat	-10.8432
▁Anth	-10.8432
▁doomed	-10.8432
▁useless	-10.8433
▁coast	-10.8433
▁Southern	-10.8433
▁behave	-10.8434
▁topless	-10.8434
ternal	-10.8439
▁photographer	-10.8439
▁Germans	-10.8441
▁perfection	-10.8443
▁passes	-10.8443
▁Wild	-10.8444
▁properly	-10.8445
▁unintentionally	-10.8449
▁colorful	-10.845
▁removed	-10.8452
▁insist	-10.8454
izing	-10.8455
▁inspiring	-10.8456
hitting	-10.8458
▁park	-10.8459
▁prepared	-10.8459
▁Does	-10.8461
▁depicted	-10.8462
▁witnessed	-10.8462
▁marks	-10.8465
▁Gal	-10.8468
▁wins	-10.8472
characterization	-10.8474
▁Andy	-10.8474
▁dro	-10.8476
▁PG	-10.8477
▁maintain	-10.8482
▁controll	-10.849
▁`	-10.8492
▁Over	-10.8501
▁Bud	-10.8504
▁persona	-10.8505
▁grown	-10.8507
▁flame	-10.8509
▁port	-10.8514
Mr	-10.8517
▁Gun	-10.8519
▁primar	-10.8522
▁listening	-10.8526
▁Soon	-10.8526
under	-10.8528
gie	-10.853
▁layer	-10.8531
▁described	-10.8534
▁beside	-10.854
▁referr	-10.8544
▁requires	-10.8555
gal	-10.8564
▁core	-10.8576
▁performer	-10.8579
wards	-10.8595
▁fo	-10.86
▁comp	-10.8617
▁goal	-10.8623
rude	-10.8627
▁overlook	-10.8639
▁pursu	-10.8646
▁king	-10.8656
▁weapons	-10.8661
▁thoughtful	-10.8672
ban	-10.8686
UL	-10.869
handed	-10.869
▁Live	-10.8692
▁Nor	-10.8713
oint	-10.8752
oyd	-10.8755
▁Val	-10.8756
▁tag	-10.8771
wi	-10.879
Sh	-10.8791
▁Jan	-10.8795
mill	-10.88
▁Cro	-10.8801
here	-10.883
rest	-10.883
Ki	-10.8832
wig	-10.8839
▁Rogers	-10.8851
wing	-10.8868
Unlike	-10.8873
hop	-10.8874
▁boot	-10.8891
▁va	-10.8893
▁Jud	-10.8899
▁resist	-10.8902
ense	-10.8911
gan	-10.893
▁Pac	-10.8931
ryl	-10.8944
rts	-10.8968
▁succeed	-10.8973
pel	-10.8992
BL	-10.8995
▁strike	-10.9019
▁thousand	-10.9023
▁sport	-10.903
fun	-10.9031
▁dollar	-10.9032
▁arc	-10.9042
▁term	-10.9042
Despi	-10.9042
▁MI	-10.9048
▁reference	-10.9049
▁react	-10.9051
▁thrills	-10.9062
▁***	-10.909
Un	-10.9127
▁kidnap	-10.9133
rating	-10.9144
▁bat	-10.9146
▁bi	-10.9149
gui	-10.915
very	-10.9156
▁organ	-10.9159
▁Come	-10.9179
▁notch	-10.9182
▁haunt	-10.9212
▁closet	-10.9212
▁spin	-10.9213
▁disappoint	-10.9213
▁newly	-10.9221
▁Rod	-10.9231
▁logic	-10.9236
world	-10.9243
mous	-10.9243
Q	-10.9253
Director	-10.9255
Most	-10.9256
Maybe	-10.9256
Michael	-10.9256
famous	-10.9256
aware	-10.9257
press	-10.9262
shot	-10.9267
after	-10.9272
worthy	-10.9273
▁tu	-10.9274
OK	-10.9274
▁Whit	-10.9274
▁unintentional	-10.9276
nut	-10.9278
▁extras	-10.9285
▁cheer	-10.929
▁faith	-10.9295
▁Lon	-10.9296
▁cartoons	-10.9297
▁Whe	-10.9308
▁nation	-10.9314
▁Que	-10.9314
ology	-10.9315
xploitation	-10.9317
#	-10.9319
▁Geraldine	-10.9319
▁Levinson	-10.9319
▁contract	-10.9319
▁fascination	-10.9319
▁instrument	-10.9319
▁jewel	-10.9319
▁1/10	-10.9319
▁Abbott	-10.9319
▁Campbell	-10.9319
▁Cassavetes	-10.9319
▁Giallo	-10.9319
▁Knox	-10.9319
▁Kravaal	-10.9319
▁Lumière	-10.9319
▁Oliver	-10.9319
▁Scorcese	-10.9319
▁abandoned	-10.9319
▁advantage	-10.9319
▁broad	-10.9319
▁captain	-10.9319
▁citizen	-10.9319
▁contempt	-10.9319
▁contribute	-10.9319
▁curiosity	-10.9319
▁custom	-10.9319
▁description	-10.9319
▁disjointed	-10.9319
▁frozen	-10.9319
▁generous	-10.9319
▁global	-10.9319
▁guide	-10.9319
▁homage	-10.9319
▁legitimate	-10.9319
▁magazine	-10.9319
▁mainstream	-10.9319
▁newspaper	-10.9319
▁precise	-10.9319
▁shadow	-10.9319
▁sidekick	-10.9319
▁suicide	-10.9319
▁supernatural	-10.9319
▁uniform	-10.9319
▁unoriginal	-10.9319
▁mafia	-10.9319
▁network	-10.9319
▁purchase	-10.9319
▁Custer	-10.9319
▁Either	-10.9319
▁biased	-10.9319
▁Clara	-10.9319
▁spectacle	-10.9319
▁conspiracy	-10.9319
▁Kennedy	-10.9319
▁Corman	-10.9319
▁Could	-10.9319
▁Emily	-10.9319
graph	-10.9319
▁queen	-10.9319
▁funeral	-10.9319
▁native	-10.9319
www	-10.9319
▁Short	-10.9319
▁arrest	-10.9319
▁outcome	-10.9319
▁1960	-10.9319
▁embarrassment	-10.9319
▁lawyer	-10.9319
▁Keith	-10.9319
▁States	-10.9319
▁nerve	-10.9319
▁Phil	-10.9319
▁plague	-10.9319
▁precious	-10.9319
▁scrap	-10.9319
▁Aunt	-10.932
▁occurred	-10.932
▁exquisite	-10.932
▁Potter	-10.932
▁Ginger	-10.932
▁competent	-10.932
▁fond	-10.932
▁select	-10.932
▁Garden	-10.932
▁border	-10.932
▁heckler	-10.932
▁June	-10.932
▁Antoni	-10.932
▁Ranger	-10.932
▁Albert	-10.9321
▁Laden	-10.9321
▁merit	-10.9321
▁YOUR	-10.9321
▁angel	-10.9321
▁glow	-10.9321
dolph	-10.9321
▁Army	-10.9321
▁weekend	-10.9321
▁Bush	-10.9322
▁Burk	-10.9322
▁achievement	-10.9322
▁lord	-10.9322
▁Sorry	-10.9322
▁Willem	-10.9323
▁neck	-10.9323
▁confrontation	-10.9323
▁buff	-10.9323
▁Harrison	-10.9323
fan	-10.9324
▁flight	-10.9324
▁Actor	-10.9324
▁section	-10.9324
▁ironic	-10.9325
▁traditional	-10.9325
▁affection	-10.9325
▁egg	-10.9325
gun	-10.9325
▁pub	-10.9326
END	-10.9326
▁Super	-10.9326
Yes	-10.9327
▁urge	-10.9327
Predator	-10.9328
▁Doctor	-10.9328
▁Brooks	-10.9328
Play	-10.9328
▁UK	-10.9329
▁invite	-10.9329
▁Wors	-10.9329
▁abduct	-10.9329
▁ancient	-10.933
▁fitting	-10.933
▁raw	-10.9331
▁Bern	-10.9332
semble	-10.9332
▁mach	-10.9333
▁summer	-10.9334
▁Gregory	-10.9334
▁3/10	-10.9334
▁shirt	-10.9335
▁assure	-10.9335
▁destin	-10.9335
▁moon	-10.9335
▁Baby	-10.9337
▁Marion	-10.9338
▁engaged	-10.9338
▁pirate	-10.9339
▁Marlo	-10.9339
▁presentation	-10.934
▁Rings	-10.934
▁Happy	-10.9341
look	-10.9342
▁Kath	-10.9343
▁adore	-10.9344
▁mildly	-10.9345
▁Whatever	-10.9346
▁Master	-10.9347
▁storm	-10.9348
▁whim	-10.9348
Sister	-10.9351
▁stinker	-10.9351
▁Again	-10.9353
▁cable	-10.9355
▁Dar	-10.9356
▁rope	-10.936
▁PR	-10.9365
▁lucky	-10.9368
▁physically	-10.937
▁wit	-10.9371
▁accuse	-10.9371
▁dear	-10.9376
▁Blood	-10.9378
▁2)	-10.9379
▁Up	-10.9381
▁desired	-10.9384
▁Mia	-10.9387
▁Capt	-10.9392
▁addict	-10.9392
▁endure	-10.9393
▁handle	-10.9393
▁Roy	-10.9394
▁forth	-10.9394
▁parties	-10.9397
▁Award	-10.9408
▁castle	-10.942
▁grin	-10.9425
Can	-10.9436
etta	-10.9453
Na	-10.9455
▁fest	-10.9459
▁sexually	-10.946
▁spy	-10.9464
▁clo	-10.9464
mple	-10.9466
▁sin	-10.9469
▁shy	-10.9473
▁stranger	-10.9477
▁Simpson	-10.9489
▁Were	-10.9506
▁motives	-10.9508
▁divers	-10.951
▁shower	-10.9527
ola	-10.9538
▁magical	-10.9548
code	-10.9552
▁union	-10.9555
erry	-10.956
▁Fan	-10.9575
▁fare	-10.9576
hal	-10.9589
mission	-10.9591
▁intentional	-10.9591
▁commented	-10.9597
▁strongly	-10.961
aft	-10.961
▁boo	-10.9619
▁sports	-10.9626
bur	-10.9626
▁Toro	-10.965
▁occurs	-10.9655
▁reactions	-10.9656
▁props	-10.9677
She	-10.9681
▁Ah	-10.9693
▁Cur	-10.9701
Hav	-10.9707
set	-10.9709
▁spite	-10.9721
▁asking	-10.9729
▁Victor	-10.975
ov	-10.9771
signed	-10.9792
▁preach	-10.9811
spect	-10.9821
▁awfully	-10.9822
▁cook	-10.9824
▁blows	-10.9836
▁Indians	-10.9852
Somehow	-10.9853
▁Uni	-10.9853
EAR	-10.9863
Eye	-10.9902
Freddy	-10.9913
▁Cap	-10.9914
point	-10.9956
hank	-10.9967
▁protagonists	-10.9988
▁ca	-10.999
face	-11.0005
ancy	-11.0005
5)	-11.0006
▁suburb	-11.0016
▁weapon	-11.0022
▁Brother	-11.0027
▁clip	-11.0029
fu	-11.0034
▁Has	-11.0036
▁Sid	-11.008
rite	-11.0081
▁Dur	-11.0089
▁bou	-11.0092
▁resembl	-11.0094
▁notable	-11.0111
▁spoiler	-11.0111
▁forest	-11.0117
▁Pur	-11.013
▁originally	-11.0134
▁Ger	-11.0176
▁refer	-11.0178
▁Edg	-11.0181
▁realiz	-11.0195
▁del	-11.0196
▁hung	-11.02
AME	-11.0202
▁argue	-11.0208
▁lit	-11.022
ith	-11.022
▁Har	-11.0224
place	-11.023
▁Cho	-11.0233
▁plea	-11.0251
clear	-11.0251
Blood	-11.0253
Great	-11.0255
Although	-11.0256
James	-11.0256
DY	-11.0258
▁Wil	-11.0258
weight	-11.026
why	-11.0261
▁irritat	-11.0261
ila	-11.0262
based	-11.0266
TV	-11.0266
▁greater	-11.0267
type	-11.0269
ummy	-11.0273
idden	-11.0282
Other	-11.0282
▁bore	-11.0283
neath	-11.0284
olf	-11.0284
atory	-11.0285
▁valu	-11.0286
99	-11.0286
▁stink	-11.0287
▁Desi	-11.0289
▁robber	-11.0292
▁replace	-11.03
fall	-11.0302
▁proper	-11.0302
▁chose	-11.0308
▁Ever	-11.031
▁dread	-11.031
▁origin	-11.0311
▁tradition	-11.0312
ROM	-11.0312
▁Under	-11.0312
▁threat	-11.0313
▁YOU	-11.0316
xcellent	-11.0317
▁favour	-11.0318
▁Japan	-11.0319
▁climb	-11.0319
▁observ	-11.0319
executive	-11.0319
’	-11.0319
▁10/10	-11.0319
▁Character	-11.0319
▁Communist	-11.0319
▁Crystal	-11.0319
▁Cushing	-11.0319
▁Francisco	-11.0319
▁Hopefully	-11.0319
▁Mitchell	-11.0319
▁Seriously	-11.0319
▁Shakespeare	-11.0319
▁Sharpe	-11.0319
▁Stooges	-11.0319
▁Thompson	-11.0319
▁Tierney	-11.0319
▁advice	-11.0319
▁backdrop	-11.0319
▁campaign	-11.0319
▁clumsy	-11.0319
▁compromise	-11.0319
▁confusion	-11.0319
▁credible	-11.0319
▁dinosaur	-11.0319
▁dynamic	-11.0319
▁easier	-11.0319
▁encourage	-11.0319
▁evoke	-11.0319
▁fabulous	-11.0319
▁increasing	-11.0319
▁miserably	-11.0319
▁neurotic	-11.0319
▁nostalgic	-11.0319
▁orchestra	-11.0319
▁outrageous	-11.0319
▁parallel	-11.0319
▁redemption	-11.0319
▁relentless	-11.0319
▁resource	-11.0319
▁respond	-11.0319
▁restaurant	-11.0319
▁riveting	-11.0319
▁striking	-11.0319
▁substantial	-11.0319
▁tactics	-11.0319
▁terrifying	-11.0319
▁thirty	-11.0319
▁treasure	-11.0319
▁unsettling	-11.0319
▁Amazing	-11.0319
▁Connery	-11.0319
▁Costner	-11.0319
▁Iraq	-11.0319
▁breathtaking	-11.0319
▁companion	-11.0319
▁compliment	-11.0319
▁dreck	-11.0319
▁illogical	-11.0319
▁scratch	-11.0319
▁Consider	-11.0319
▁Houston	-11.0319
▁Warrior	-11.0319
▁alternate	-11.0319
▁racist	-11.0319
▁worrie	-11.0319
▁Axel	-11.0319
▁circumstances	-11.0319
▁clothing	-11.0319
▁official	-11.0319
▁ANY	-11.0319
▁Addams	-11.0319
▁Guru	-11.0319
▁drown	-11.0319
▁sufficient	-11.0319
▁Church	-11.0319
▁agenda	-11.0319
▁damage	-11.0319
▁sneak	-11.0319
▁internet	-11.0319
▁ourselves	-11.0319
▁Next	-11.0319
▁Fisher	-11.0319
▁asleep	-11.0319
▁burst	-11.0319
▁timing	-11.0319
▁earned	-11.0319
▁extent	-11.0319
▁inherit	-11.0319
▁firm	-11.0319
▁circu	-11.0319
▁Hawk	-11.0319
▁REALLY	-11.0319
▁cliff	-11.0319
▁locate	-11.0319
▁mistress	-11.0319
▁league	-11.0319
▁greedy	-11.0319
▁crappy	-11.0319
▁Simon	-11.0319
▁Griffith	-11.0319
▁medical	-11.0319
▁Russia	-11.0319
▁transport	-11.0319
▁chopp	-11.0319
numbing	-11.0319
▁Chains	-11.0319
▁Navy	-11.0319
▁Quaid	-11.0319
▁Suppo	-11.032
▁committed	-11.032
▁assistant	-11.032
▁condition	-11.032
▁miscast	-11.032
▁saga	-11.032
▁devil	-11.032
Nightmare	-11.032
▁eager	-11.032
▁ponder	-11.0321
cheek	-11.0321
▁shifts	-11.0321
▁Franco	-11.0321
▁brave	-11.0322
▁wrap	-11.0322
▁flawless	-11.0322
▁$1	-11.0322
▁closing	-11.0323
▁Spielberg	-11.0323
▁intellectual	-11.0323
▁spring	-11.0323
▁resort	-11.0323
▁static	-11.0324
▁pants	-11.0324
▁Things	-11.0324
▁symbolic	-11.0325
▁cake	-11.0325
stein	-11.0325
▁function	-11.0325
▁mansion	-11.0325
▁gap	-11.0325
▁European	-11.0326
▁grainy	-11.0326
▁Carter	-11.0326
Bride	-11.0326
▁crude	-11.0327
▁17	-11.0328
▁illness	-11.0328
▁lifestyle	-11.0328
▁afterwards	-11.0328
▁determine	-11.0329
▁Spoiler	-11.0329
▁attached	-11.0329
▁Hong	-11.033
▁Garfield	-11.033
▁everyday	-11.033
▁Kane	-11.033
▁Bible	-11.033
▁spoken	-11.0331
▁club	-11.0331
▁Nine	-11.0332
▁medium	-11.0332
▁nerd	-11.0333
▁objective	-11.0333
▁Avery	-11.0334
▁masses	-11.0334
▁Evel	-11.0335
▁cringe	-11.0335
▁Almost	-11.0336
▁Maria	-11.0336
▁Production	-11.0336
▁useful	-11.0336
▁prisoners	-11.0337
▁Cox	-11.0337
▁happily	-11.0337
▁chain	-11.0338
▁cab	-11.0338
▁corner	-11.0338
▁Mimi	-11.0339
▁underst	-11.0339
quin	-11.034
▁astonishing	-11.0341
▁required	-11.0341
▁creation	-11.0341
asket	-11.0342
TRA	-11.0342
▁Except	-11.0343
▁Road	-11.0343
▁Dern	-11.0343
▁uneven	-11.0343
▁Think	-11.0344
▁beaten	-11.0345
▁Law	-11.0345
▁constructed	-11.0347
▁cheating	-11.0347
▁distracting	-11.0347
▁brand	-11.0348
▁foot	-11.0348
▁squad	-11.0348
▁Judy	-11.035
▁hopefully	-11.0351
▁attracted	-11.0352
▁Neil	-11.0352
▁selfish	-11.0352
▁Jimmy	-11.0353
▁stupidity	-11.0361
▁comical	-11.0365
▁Harris	-11.0367
▁Moon	-11.0371
▁End	-11.0374
▁nun	-11.0378
▁Way	-11.038
▁haunting	-11.0385
▁served	-11.0385
ttle	-11.0386
▁tortured	-11.0391
▁tick	-11.0391
▁Guy	-11.0392
▁Rollin	-11.0393
▁Loy	-11.0394
bbed	-11.0394
▁Get	-11.0398
▁reminiscen	-11.0398
▁thrilling	-11.04
▁pimp	-11.04
▁Acting	-11.0401
▁awhile	-11.0401
▁multipl	-11.0404
ority	-11.0404
▁pour	-11.0406
▁Hart	-11.0407
horn	-11.0407
▁commanding	-11.0409
▁failing	-11.0413
▁cure	-11.0418
▁recorded	-11.0424
▁clichéd	-11.0425
Code	-11.0427
▁anger	-11.0433
▁ignored	-11.0433
▁combin	-11.0435
▁selling	-11.0442
▁complaint	-11.0445
▁recording	-11.0448
punk	-11.0454
▁ST	-11.0458
▁dive	-11.0459
▁designed	-11.0462
comprehensible	-11.0463
▁captured	-11.0464
▁Cle	-11.0467
drew	-11.0485
▁corpses	-11.0496
▁suggested	-11.0497
▁nine	-11.0499
▁woo	-11.0505
▁painting	-11.0509
▁2:	-11.0519
▁swi	-11.0526
▁Lot	-11.0538
ended	-11.0544
▁previously	-11.0545
uke	-11.0547
▁En	-11.0548
▁resemble	-11.0556
20	-11.0558
▁meat	-11.0582
▁bullets	-11.0594
▁offering	-11.0598
akot	-11.0615
▁Pop	-11.0615
▁Bri	-11.062
ien	-11.0625
ector	-11.0627
Ann	-11.064
incidentally	-11.0652
▁strikes	-11.066
▁Simp	-11.0665
▁dispos	-11.067
cam	-11.0683
▁Tre	-11.0685
▁demands	-11.0693
▁expressions	-11.0695
▁dedicat	-11.0704
▁Pal	-11.0717
▁reduce	-11.0724
▁guests	-11.0726
▁harder	-11.0728
▁arch	-11.0731
ager	-11.0737
▁Cli	-11.0742
▁poses	-11.0744
nie	-11.0753
▁screenwriters	-11.076
▁quot	-11.0763
▁intentions	-11.0768
▁plann	-11.0774
▁ya	-11.0783
nne	-11.0797
▁range	-11.0804
▁prepare	-11.0815
▁Stra	-11.0816
ute	-11.0818
▁renting	-11.0823
oul	-11.0824
▁rats	-11.0829
▁Row	-11.0836
▁Par	-11.084
▁pee	-11.0845
▁Sav	-11.0857
mond	-11.0859
rowing	-11.0863
▁Der	-11.0866
iller	-11.088
bal	-11.089
▁Being	-11.0938
▁4-	-11.0946
▁Wai	-11.0977
▁headed	-11.0978
hoe	-11.0978
UT	-11.0983
▁Myster	-11.0987
rif	-11.1004
▁careful	-11.101
▁claims	-11.103
▁Jon	-11.1036
ppy	-11.1094
▁bullet	-11.1134
▁shine	-11.1145
ATE	-11.1147
pot	-11.1189
▁Cop	-11.1224
mount	-11.1229
▁summ	-11.1295
chin	-11.1297
▁arm	-11.1308
▁incident	-11.1308
ification	-11.1311
▁emerge	-11.1322
▁multi	-11.1328
esh	-11.1346
▁choos	-11.1348
loved	-11.1353
8/10	-11.1362
girl	-11.1364
spoiler	-11.1364
Avoid	-11.1365
White	-11.1366
Watch	-11.1367
white	-11.1367
director	-11.1367
almost	-11.1367
walk	-11.1367
wife	-11.1368
Jack	-11.1368
▁annoy	-11.1372
human	-11.1373
▁impress	-11.1377
Who	-11.138
Still	-11.1381
▁shout	-11.1382
burn	-11.1387
Love	-11.1388
fight	-11.1391
▁generate	-11.1392
racked	-11.1392
notch	-11.1393
▁tune	-11.1395
▁necessar	-11.1405
gang	-11.1408
▁India	-11.1411
Dr	-11.1416
ollywood	-11.1421
▁education	-11.1423
▁Brand	-11.1423
▁Univers	-11.1423
▁Hum	-11.1425
▁Europe	-11.1425
▁opt	-11.1427
▁melodrama	-11.1428
▁relie	-11.1428
itude	-11.143
===	-11.143
▁PLEASE	-11.143
Extreme	-11.143
conventional	-11.143
osaurus	-11.143
▁Alonzo	-11.143
▁Beautiful	-11.143
▁Cassandra	-11.143
▁Chaplin	-11.143
▁Civil	-11.143
▁Coppola	-11.143
▁Detective	-11.143
▁Elliot	-11.143
▁Fantasy	-11.143
▁Hawaii	-11.143
▁Horror	-11.143
▁Reggie	-11.143
▁Terminator	-11.143
▁Vietnam	-11.143
▁Wednesday	-11.143
▁adequate	-11.143
▁bargain	-11.143
▁benefit	-11.143
▁bleak	-11.143
▁buzz	-11.143
▁cheerlead	-11.143
▁compassion	-11.143
▁complement	-11.143
▁composer	-11.143
▁crucial	-11.143
▁cruise	-11.143
▁cynical	-11.143
▁delicious	-11.143
▁deserving	-11.143
▁enhance	-11.143
▁expensive	-11.143
▁frustration	-11.143
▁genocide	-11.143
▁gradually	-11.143
▁immense	-11.143
▁implausible	-11.143
▁inexplicable	-11.143
▁innovative	-11.143
▁innuendo	-11.143
▁literature	-11.143
▁lounge	-11.143
▁ludicrous	-11.143
▁metaphor	-11.143
▁midnight	-11.143
▁mirror	-11.143
▁misleading	-11.143
▁philosophy	-11.143
▁possibilities	-11.143
▁possibility	-11.143
▁premiere	-11.143
▁professor	-11.143
▁pseudo	-11.143
▁puppet	-11.143
▁slaughter	-11.143
▁sleazy	-11.143
▁splendid	-11.143
▁stellar	-11.143
▁sublime	-11.143
▁tremendous	-11.143
▁triangle	-11.143
▁tunnel	-11.143
▁unbearable	-11.143
▁vengeance	-11.143
▁verbal	-11.143
▁wheelchair	-11.143
@	-11.143
absorb	-11.143
▁Keaton	-11.143
▁LOT	-11.143
▁Sherlock	-11.143
▁Snape	-11.143
▁Walken	-11.143
▁buried	-11.143
▁concentrate	-11.143
▁emphasi	-11.143
▁fortune	-11.143
▁threw	-11.143
▁throat	-11.143
▁Swann	-11.143
▁brown	-11.143
▁drill	-11.143
▁dubbing	-11.143
▁exhaust	-11.143
▁measure	-11.143
▁Awful	-11.143
▁Buffy	-11.143
▁Niro	-11.143
▁Pryor	-11.143
▁article	-11.143
▁consciousness	-11.143
▁lovable	-11.143
▁method	-11.143
▁refund	-11.143
▁milk	-11.143
▁variety	-11.143
▁:-)	-11.143
▁rehash	-11.143
▁distant	-11.143
▁geek	-11.143
▁BAD	-11.143
▁dragged	-11.143
▁astound	-11.143
▁borrow	-11.143
▁menacing	-11.143
▁Doom	-11.143
▁advise	-11.143
▁bedroom	-11.143
▁region	-11.143
▁applie	-11.143
▁ensure	-11.143
▁misery	-11.143
▁wrestl	-11.143
://	-11.143
▁source	-11.143
Natural	-11.143
▁basis	-11.143
Fonda	-11.143
▁Reeve	-11.143
▁awake	-11.143
▁engine	-11.143
▁mugg	-11.143
▁Grade	-11.143
▁consum	-11.143
▁gear	-11.143
▁bond	-11.143
▁contact	-11.143
▁blur	-11.143
▁tiresome	-11.143
▁kidnapping	-11.143
▁football	-11.143
▁Mickey	-11.143
▁boredom	-11.143
▁REAL	-11.143
▁vague	-11.143
▁Ireland	-11.143
▁presumably	-11.143
▁bald	-11.143
▁Miike	-11.1431
▁wives	-11.1431
▁happiness	-11.1431
▁yellow	-11.1431
▁Barney	-11.1431
▁Revolution	-11.1431
▁thread	-11.1431
▁symbolism	-11.1431
dmittedly	-11.1431
5/10	-11.1431
▁manipulative	-11.1431
▁trunk	-11.1431
▁worthwhile	-11.1431
OWN	-11.1431
▁Chuck	-11.1431
▁rough	-11.1431
▁Austria	-11.1431
▁homosexuality	-11.1432
▁squi	-11.1432
▁spark	-11.1432
▁melodramatic	-11.1432
▁preview	-11.1432
▁interpretation	-11.1432
▁GOOD	-11.1432
historic	-11.1432
▁splice	-11.1432
▁wannabe	-11.1433
▁Connie	-11.1433
▁Marshall	-11.1433
▁roof	-11.1433
▁femini	-11.1434
▁candle	-11.1434
▁babe	-11.1434
▁foul	-11.1434
▁stress	-11.1434
▁shake	-11.1434
▁gri	-11.1434
▁Aust	-11.1434
▁risk	-11.1434
▁philosophical	-11.1435
▁WAS	-11.1435
uted	-11.1435
▁continuity	-11.1436
▁Anyone	-11.1436
▁elsewhere	-11.1436
▁duty	-11.1436
▁Adamson	-11.1436
▁Baker	-11.1436
▁Christie	-11.1436
▁192	-11.1436
▁Unless	-11.1436
▁Anderson	-11.1436
▁shall	-11.1437
▁tank	-11.1437
▁Sweet	-11.1437
▁sympathize	-11.1438
▁inmates	-11.1438
▁Merc	-11.1438
▁Aslan	-11.1438
▁stake	-11.1439
▁suspenseful	-11.1439
▁Sense	-11.1439
▁playboy	-11.1439
▁offended	-11.1439
▁Nichol	-11.144
▁DON	-11.144
▁blast	-11.144
▁Grace	-11.1441
▁Mafi	-11.1441
▁Zombie	-11.1442
▁Halloween	-11.1442
▁Wallace	-11.1442
▁crazed	-11.1442
▁Third	-11.1442
▁Six	-11.1442
▁Luck	-11.1442
▁mature	-11.1443
OME	-11.1443
▁Cyn	-11.1444
▁Samir	-11.1445
▁vice	-11.1445
▁Right	-11.1445
▁Mini	-11.1445
▁steer	-11.1446
▁24	-11.1446
▁River	-11.1446
▁acceptable	-11.1447
▁Children	-11.1449
▁Korea	-11.1449
strange	-11.145
▁Chase	-11.145
▁Strip	-11.145
▁exaggerated	-11.145
▁respectable	-11.145
▁Patrick	-11.145
▁behold	-11.1451
▁Rosa	-11.1453
▁Case	-11.1454
▁approaches	-11.1454
▁2001	-11.1455
▁granted	-11.1456
oi	-11.1456
▁tad	-11.1457
▁hall	-11.1457
▁Brig	-11.1459
▁washed	-11.1459
▁handling	-11.1459
▁tame	-11.1461
▁Goth	-11.1462
▁Candy	-11.1462
▁upset	-11.1462
▁tv	-11.1462
▁instantly	-11.1463
▁signal	-11.1463
▁Nation	-11.1464
▁Basically	-11.1465
▁Special	-11.1465
▁provoking	-11.1465
▁established	-11.1467
▁Butler	-11.1468
▁explode	-11.1469
▁helpless	-11.1469
▁Carole	-11.147
▁Evil	-11.1473
▁qualifie	-11.1473
fire	-11.1474
mouthed	-11.1475
▁gotta	-11.1476
▁recommendation	-11.1476
▁Lane	-11.1476
▁possesse	-11.1477
▁planned	-11.1482
▁maniac	-11.1483
▁Made	-11.1483
▁resolved	-11.1485
ifying	-11.1487
▁7/10	-11.1489
▁repeatedly	-11.1489
▁replaced	-11.149
▁busy	-11.1492
▁grip	-11.1492
▁Earl	-11.1494
Lee	-11.1496
aker	-11.1498
▁intrigued	-11.1498
Robot	-11.1503
▁punk	-11.1508
▁bitch	-11.1511
igg	-11.1512
▁mistaken	-11.1517
▁farce	-11.1518
▁Kate	-11.1519
patch	-11.1521
▁moody	-11.1525
sort	-11.1528
▁wishes	-11.1532
▁spoiled	-11.1537
▁Ivan	-11.1539
▁trashy	-11.1541
auer	-11.1542
lished	-11.1544
▁related	-11.1544
hound	-11.1554
Doubl	-11.1555
anged	-11.1556
▁proceeds	-11.1557
▁tripe	-11.1561
▁Sheen	-11.1562
Let	-11.1564
IL	-11.1564
▁BL	-11.1564
ELL	-11.1566
▁boil	-11.1573
▁drawing	-11.1583
etched	-11.1586
▁Laur	-11.1587
▁avoided	-11.1588
beat	-11.1594
TION	-11.1595
▁tease	-11.1596
▁displayed	-11.1602
otal	-11.1603
Keep	-11.1605
▁effectively	-11.1612
▁bothered	-11.1616
each	-11.1617
lmer	-11.1618
▁stone	-11.1623
▁gro	-11.1628
ique	-11.1628
easy	-11.1628
tha	-11.1629
▁explosions	-11.163
ago	-11.1631
▁stealing	-11.1631
▁Bron	-11.1632
ctic	-11.1637
▁interact	-11.164
▁aired	-11.1652
TS	-11.1658
▁row	-11.1664
▁pun	-11.1666
▁kicking	-11.1683
▁lesser	-11.1683
▁covered	-11.1687
Car	-11.1687
▁ser	-11.1688
▁rolling	-11.1689
▁admire	-11.1689
▁fairy	-11.1693
▁harm	-11.1694
▁passing	-11.1698
ford	-11.1704
▁sleeping	-11.1712
▁fatal	-11.1721
▁glass	-11.1728
▁messed	-11.1734
▁Pirate	-11.1763
illian	-11.1776
▁Command	-11.1782
bar	-11.1786
▁web	-11.1796
azz	-11.1808
▁embrace	-11.181
ika	-11.1811
▁goodness	-11.1824
TE	-11.1838
▁Eva	-11.1847
Vi	-11.1848
▁criticize	-11.1849
▁AT	-11.1855
htt	-11.1858
▁Romania	-11.1865
mmed	-11.1867
▁indicate	-11.1871
▁Elm	-11.1883
▁Die	-11.1891
▁75	-11.1902
grade	-11.1903
See	-11.1918
▁nose	-11.1919
lew	-11.1929
ntin	-11.1931
▁tru	-11.1945
Luc	-11.1958
oined	-11.196
bot	-11.1974
dress	-11.1976
field	-11.1978
▁comfort	-11.1987
▁Have	-11.1989
rock	-11.2014
TA	-11.2066
Body	-11.2076
includ	-11.2085
▁copie	-11.2088
▁Jill	-11.2097
vision	-11.2097
▁Vic	-11.2115
open	-11.2122
list	-11.2124
EST	-11.2128
ddled	-11.2131
dium	-11.2141
▁fli	-11.2147
Hope	-11.218
▁defi	-11.2194
▁rational	-11.22
▁Ham	-11.2222
zzy	-11.2243
▁dra	-11.226
rai	-11.2269
2002	-11.2277
van	-11.2278
Neal	-11.2282
▁mud	-11.229
▁Fun	-11.2315
▁Bin	-11.2324
unning	-11.233
▁propos	-11.2339
bus	-11.2363
shed	-11.2363
▁define	-11.2365
bul	-11.2376
****	-11.2393
minate	-11.2421
turned	-11.2432
▁mag	-11.2454
arren	-11.2459
▁ignor	-11.2474
▁Leon	-11.2495
▁Add	-11.2501
BS	-11.2501
▁(199	-11.2519
▁Norma	-11.2532
KE	-11.2534
attered	-11.2545
ARE	-11.2548
lov	-11.2565
aki	-11.2577
▁flu	-11.2577
▁expos	-11.2588
▁stea	-11.259
worth	-11.2591
SPOILER	-11.2607
craft	-11.2612
7/10	-11.2614
Donald	-11.2615
logical	-11.2615
teen	-11.2615
forgettable	-11.2615
correct	-11.2615
bound	-11.2615
connect	-11.2616
length	-11.2616
mentioned	-11.2617
modern	-11.2617
consider	-11.2617
maybe	-11.2617
script	-11.2617
minute	-11.2618
comedy	-11.2618
Charles	-11.262
legal	-11.262
truck	-11.2627
Never	-11.263
▁abrupt	-11.2636
Steve	-11.2638
▁sudden	-11.2638
▁flag	-11.2641
▁divorce	-11.2642
▁squa	-11.2648
luck	-11.265
either	-11.2655
▁Wonder	-11.2655
▁tall	-11.2662
acy	-11.2665
▁promote	-11.2665
▁bike	-11.267
▁Er	-11.2671
▁betray	-11.2673
door	-11.2676
▁assassin	-11.2676
magine	-11.2677
▁adapt	-11.2677
cream	-11.2677
▁arrange	-11.2677
▁Euro	-11.2679
OOD	-11.2679
ssociate	-11.2679
▁smug	-11.268
▁yell	-11.268
Furthermore	-11.268
recognition	-11.268
▁pocket	-11.268
Apocalyp	-11.268
Ninja	-11.268
doubtedly	-11.268
▁9/10	-11.268
▁Adrian	-11.268
▁Avenger	-11.268
▁Baldwin	-11.268
▁DeNiro	-11.268
▁Egypt	-11.268
▁Enterprise	-11.268
▁Freeman	-11.268
▁Gadget	-11.268
▁Gemser	-11.268
▁Gilliam	-11.268
▁Hamilton	-11.268
▁Hoskins	-11.268
▁Hudson	-11.268
▁Jordan	-11.268
▁Keitel	-11.268
▁LISA	-11.268
▁Maggie	-11.268
▁Manhattan	-11.268
▁McDowell	-11.268
▁Picture	-11.268
▁Rahul	-11.268
▁Shepherd	-11.268
▁Sisko	-11.268
▁Stockwell	-11.268
▁Sunshine	-11.268
▁Taliban	-11.268
▁Tarzan	-11.268
▁Usually	-11.268
▁Valdez	-11.268
▁Vegas	-11.268
▁abortion	-11.268
▁abysmal	-11.268
▁ambitious	-11.268
▁audition	-11.268
▁bottle	-11.268
▁caliber	-11.268
▁celebrity	-11.268
▁choreographed	-11.268
▁cigarette	-11.268
▁complicated	-11.268
▁confidence	-11.268
▁conservative	-11.268
▁controversial	-11.268
▁credibility	-11.268
▁derivative	-11.268
▁faint	-11.268
▁fascinated	-11.268
▁guarantee	-11.268
▁hackneyed	-11.268
▁horrendous	-11.268
▁inferior	-11.268
▁inject	-11.268
▁injure	-11.268
▁juvenile	-11.268
▁kitchen	-11.268
▁knife	-11.268
▁morbid	-11.268
▁ninja	-11.268
▁peculiar	-11.268
▁portrait	-11.268
▁pregnant	-11.268
▁profanity	-11.268
▁racism	-11.268
▁recognizable	-11.268
▁relevance	-11.268
▁retired	-11.268
▁ritual	-11.268
▁ruthless	-11.268
▁significance	-11.268
▁skull	-11.268
▁sloppy	-11.268
▁superficial	-11.268
▁suspension	-11.268
▁territory	-11.268
▁trademark	-11.268
▁vulgar	-11.268
Brazil	-11.268
▁Hazel	-11.268
▁Holden	-11.268
▁Ricco	-11.268
▁Troma	-11.268
▁anxious	-11.268
▁coffin	-11.268
▁deputy	-11.268
▁dignity	-11.268
▁disguise	-11.268
▁jacket	-11.268
▁minimum	-11.268
▁participat	-11.268
▁tribe	-11.268
▁vacation	-11.268
UST	-11.268
▁Daffy	-11.268
▁Greek	-11.268
▁exotic	-11.268
▁nowadays	-11.268
▁sweat	-11.268
▁BBC	-11.268
▁Delpy	-11.268
▁grasp	-11.268
▁Burns	-11.268
▁absent	-11.268
▁insanity	-11.268
▁library	-11.268
▁wicked	-11.268
▁Spain	-11.268
▁inappropriate	-11.268
▁monologue	-11.268
Empire	-11.268
▁restrain	-11.268
▁Train	-11.268
▁distance	-11.268
▁smell	-11.268
▁darn	-11.268
▁passengers	-11.268
▁chip	-11.268
Hugh	-11.268
▁bathroom	-11.268
▁headache	-11.268
▁spill	-11.268
▁helicopter	-11.268
▁comedian	-11.268
▁daring	-11.268
▁hoot	-11.268
▁CIA	-11.268
▁provocative	-11.268
▁competition	-11.268
▁retell	-11.268
▁Game	-11.268
▁cyborg	-11.268
,000	-11.268
Craig	-11.268
alysis	-11.268
▁shut	-11.268
▁cliche	-11.268
▁hill	-11.268
▁HtD	-11.268
▁horrid	-11.268
▁endear	-11.268
▁addresse	-11.268
▁Shoot	-11.268
▁approv	-11.268
▁digital	-11.268
▁Blake	-11.268
▁Ralph	-11.268
▁Hellgate	-11.268
▁aircraft	-11.268
Regina	-11.2681
lleged	-11.2681
▁associated	-11.2681
▁Holocaust	-11.2681
▁ONLY	-11.2681
▁chamber	-11.2681
▁Jonath	-11.2681
▁serving	-11.2681
loving	-11.2681
▁Ladd	-11.2681
▁tongue	-11.2681
▁strand	-11.2681
▁staple	-11.2681
▁Everybody	-11.2681
▁combat	-11.2681
▁loyalty	-11.2681
▁Adventures	-11.2681
▁summary	-11.2681
▁Graham	-11.2681
▁Larry	-11.2681
▁Women	-11.2681
▁financ	-11.2681
▁Catholic	-11.2681
▁bird	-11.2681
▁Harper	-11.2681
▁gunshot	-11.2682
▁Valley	-11.2682
▁Window	-11.2682
▁unpredictable	-11.2682
▁fifties	-11.2682
▁sensuality	-11.2682
▁horrific	-11.2682
▁compet	-11.2682
▁acid	-11.2682
▁ticket	-11.2682
▁Grand	-11.2682
▁river	-11.2682
▁Lisa	-11.2682
▁undead	-11.2682
▁Carmen	-11.2682
▁composition	-11.2682
▁Know	-11.2682
▁kidding	-11.2682
▁Wayne	-11.2683
▁coward	-11.2683
▁torment	-11.2683
drift	-11.2683
▁Kirk	-11.2683
Worth	-11.2683
▁wave	-11.2683
▁limp	-11.2683
▁staff	-11.2683
▁smash	-11.2683
▁Field	-11.2683
▁vein	-11.2683
▁Doris	-11.2683
▁Zell	-11.2683
▁Yune	-11.2683
▁foolish	-11.2684
▁imagery	-11.2684
▁afore	-11.2684
▁trap	-11.2684
▁WIT	-11.2684
logue	-11.2685
▁'80	-11.2685
▁similarities	-11.2685
▁invisible	-11.2685
▁safety	-11.2685
▁Summer	-11.2685
▁visible	-11.2685
▁indian	-11.2685
▁eighties	-11.2685
▁Brent	-11.2685
▁yak	-11.2685
▁jaw	-11.2685
dazzl	-11.2685
▁banne	-11.2686
▁pound	-11.2686
▁downfall	-11.2686
▁Duris	-11.2686
▁transformation	-11.2687
▁Scream	-11.2687
▁Garson	-11.2687
▁rocket	-11.2687
▁plate	-11.2688
▁Charl	-11.2689
Derek	-11.2689
▁minus	-11.2689
▁arise	-11.269
▁intent	-11.269
▁shootout	-11.269
▁Manning	-11.269
▁Laugh	-11.2691
▁Pink	-11.2691
▁groan	-11.2691
▁Liz	-11.2692
▁winter	-11.2692
▁engrossing	-11.2692
▁Benny	-11.2693
▁Canadian	-11.2693
▁Phantasm	-11.2693
▁vent	-11.2694
aboo	-11.2694
▁depiction	-11.2695
▁Boyle	-11.2695
▁True	-11.2695
▁wow	-11.2695
▁Alexand	-11.2695
▁Mili	-11.2697
▁progresses	-11.2697
▁hyper	-11.2698
hudd	-11.27
▁stale	-11.27
▁Four	-11.27
▁formulaic	-11.27
▁Rick	-11.2701
▁jar	-11.2701
▁March	-11.2701
▁portion	-11.2702
▁Sound	-11.2702
▁Viggo	-11.2702
▁drunken	-11.2702
▁wheel	-11.2703
▁bath	-11.2703
▁bare	-11.2704
Series	-11.2704
▁entic	-11.2704
▁businessman	-11.2705
ledge	-11.2706
▁sadness	-11.2707
▁jazz	-11.2709
▁goof	-11.2711
▁Born	-11.2711
▁dub	-11.2711
▁policeman	-11.2713
▁Cook	-11.2714
▁murderous	-11.2714
▁shelf	-11.2714
▁Easter	-11.2716
▁accomplished	-11.2716
▁poignant	-11.2716
▁Real	-11.2716
▁Royal	-11.272
▁identi	-11.272
▁enjoyment	-11.2721
bucks	-11.2721
▁virtue	-11.2721
▁adopted	-11.2722
▁touches	-11.2724
▁mish	-11.2724
nick	-11.2725
1.5	-11.2727
▁rott	-11.2729
cue	-11.273
▁fiancée	-11.273
▁Alien	-11.273
▁Plan	-11.2731
▁worthless	-11.2732
▁Forest	-11.2733
▁Milla	-11.2735
▁bully	-11.2735
▁remove	-11.2736
▁overacting	-11.2741
▁SPOILER	-11.2741
▁package	-11.2742
▁readers	-11.2745
NOW	-11.2746
▁handled	-11.2747
▁active	-11.2748
tech	-11.275
▁wounded	-11.2755
▁apply	-11.2756
▁stark	-11.2762
▁achieved	-11.2763
▁III	-11.2763
▁altered	-11.2768
▁repeating	-11.2773
▁Kim	-11.2774
▁Heck	-11.2779
▁pale	-11.2779
pic	-11.2779
letting	-11.2782
▁pic	-11.2788
▁teaching	-11.2789
▁versa	-11.2791
▁faster	-11.2793
▁lick	-11.2794
▁kissing	-11.2796
Em	-11.2797
▁Kor	-11.2798
▁SPOILERS	-11.2798
▁pitch	-11.2807
▁Highly	-11.2811
▁burned	-11.2814
ault	-11.2819
▁Top	-11.282
▁Sun	-11.282
▁Sir	-11.2828
uza	-11.2834
▁framed	-11.2834
▁comm	-11.2835
▁designer	-11.2841
▁burning	-11.2845
▁retain	-11.285
▁Granted	-11.2854
▁hence	-11.2858
▁programme	-11.2858
▁successfully	-11.2862
▁sky	-11.2864
▁defin	-11.2872
▁troubled	-11.2884
Close	-11.2885
▁Willi	-11.2885
rising	-11.289
▁feed	-11.2892
sided	-11.2895
▁filmmaking	-11.2909
▁pal	-11.2914
▁Bori	-11.2917
▁Had	-11.2922
▁passed	-11.2928
▁press	-11.2949
minded	-11.2964
▁Put	-11.2975
plicit	-11.2976
icking	-11.299
teeth	-11.2999
credited	-11.3016
RTS	-11.3017
bir	-11.302
Kill	-11.3031
awful	-11.3041
▁suitabl	-11.3044
40	-11.3053
▁Scarlet	-11.3068
pressed	-11.307
▁Za	-11.3076
1/2	-11.3084
▁Wall	-11.3137
▁28	-11.3142
▁Audie	-11.3147
▁lie	-11.3149
▁preferr	-11.3149
El	-11.3159
apid	-11.3174
evil	-11.3177
▁Make	-11.3203
▁Shan	-11.3222
pop	-11.3233
▁radi	-11.3254
▁Bat	-11.329
▁Dian	-11.3303
▁penn	-11.3324
▁Judg	-11.3325
step	-11.3333
rner	-11.3347
▁Act	-11.3351
erson	-11.3351
pass	-11.3369
▁warp	-11.3383
▁sens	-11.3397
erence	-11.3409
addy	-11.3413
▁thankful	-11.3417
Gas	-11.3422
thankfully	-11.3425
lite	-11.3428
NC	-11.3446
have	-11.3448
▁Ll	-11.3471
▁bust	-11.3474
▁Fu	-11.3515
authority	-11.3538
tier	-11.3552
oid	-11.3556
▁Gen	-11.3556
lick	-11.3563
letter	-11.358
FX	-11.3587
ucker	-11.3604
vor	-11.3605
eau	-11.3647
llowing	-11.3661
▁Stu	-11.3679
▁marvel	-11.3696
ounty	-11.3702
▁critic	-11.3718
▁idealis	-11.3722
illion	-11.3724
▁Lilli	-11.3736
▁Fat	-11.3739
lack	-11.3742
aka	-11.3761
▁misse	-11.3765
▁admir	-11.3775
Do	-11.3775
ota	-11.3802
odge	-11.3802
▁motive	-11.3811
iko	-11.3819
umble	-11.3822
hearted	-11.3826
▁Ye	-11.3839
▁fra	-11.3848
pent	-11.3852
▁Dad	-11.3863
▁captur	-11.3891
ccording	-11.3892
bsolutely	-11.3898
▁Barb	-11.3912
stitute	-11.3922
thia	-11.3932
▁captiv	-11.3933
oiled	-11.3946
▁Battle	-11.3963
Va	-11.3979
DC	-11.3984
▁rub	-11.4
▁194	-11.4002
rine	-11.4004
▁sometime	-11.4006
▁Qui	-11.4009
phet	-11.4021
▁div	-11.4023
present	-11.4041
	-11.4041
fist	-11.4042
funny	-11.4043
EVER	-11.4043
loud	-11.4044
Please	-11.4044
Nothing	-11.4044
Robin	-11.4045
adventure	-11.4045
Perhaps	-11.4045
William	-11.4045
effect	-11.4045
Unfortunately	-11.4045
twist	-11.4045
Richard	-11.4045
George	-11.4045
production	-11.4046
mostly	-11.4046
through	-11.4046
people	-11.4046
great	-11.4046
free	-11.4046
Norma	-11.4047
THE	-11.4047
Hollywood	-11.4048
▁split	-11.4048
Like	-11.4048
maniac	-11.4049
Paul	-11.405
black	-11.4051
killer	-11.4052
young	-11.4053
since	-11.4054
however	-11.4054
▁attract	-11.4055
tories	-11.4058
room	-11.406
▁adopt	-11.406
Bill	-11.4061
Last	-11.4062
▁corn	-11.4062
▁mild	-11.4066
▁instant	-11.4066
Kate	-11.4069
▁confuse	-11.4072
▁tire	-11.4081
Bad	-11.4091
▁spoke	-11.4091
▁establish	-11.4094
▁symbol	-11.4098
▁manipulat	-11.4099
placed	-11.4101
fortunate	-11.4104
genre	-11.4104
▁uncle	-11.4104
▁authentic	-11.4105
quire	-11.4105
▁budd	-11.4106
▁Miche	-11.4107
▁monk	-11.4108
▁paradox	-11.4108
folk	-11.4108
itarian	-11.4108
▁Tibet	-11.4108
Cannibal	-11.4108
Phantom	-11.4108
Regardless	-11.4108
climactic	-11.4108
–	-11.4108
▁Argento	-11.4108
▁Armenian	-11.4108
▁Broadway	-11.4108
▁Central	-11.4108
▁Dumbledore	-11.4108
▁Federation	-11.4108
▁HOUSE	-11.4108
▁Jacque	-11.4108
▁Kitano	-11.4108
▁Lancaster	-11.4108
▁Mexico	-11.4108
▁Narnia	-11.4108
▁Naschy	-11.4108
▁Natalie	-11.4108
▁Nikita	-11.4108
▁Oxygen	-11.4108
▁Phoenix	-11.4108
▁Schwarzenegger	-11.4108
▁Scotland	-11.4108
▁Sullivan	-11.4108
▁Swinton	-11.4108
▁TIME	-11.4108
▁Treasure	-11.4108
▁accompany	-11.4108
▁advertising	-11.4108
▁bittersweet	-11.4108
▁café	-11.4108
▁calculat	-11.4108
▁chunk	-11.4108
▁contradict	-11.4108
▁crisis	-11.4108
▁desperation	-11.4108
▁discomfort	-11.4108
▁elderly	-11.4108
▁elegant	-11.4108
▁elevator	-11.4108
▁enemies	-11.4108
▁energetic	-11.4108
▁enforce	-11.4108
▁escaping	-11.4108
▁expense	-11.4108
▁frightened	-11.4108
▁fundamental	-11.4108
▁grandfather	-11.4108
▁imaginative	-11.4108
▁improbab	-11.4108
▁incoherent	-11.4108
▁incompeten	-11.4108
▁inexplicably	-11.4108
▁ingredient	-11.4108
▁knight	-11.4108
▁misfortune	-11.4108
▁misguided	-11.4108
▁nihilis	-11.4108
▁participant	-11.4108
▁patriot	-11.4108
▁permanent	-11.4108
▁popcorn	-11.4108
▁population	-11.4108
▁predecessor	-11.4108
▁prejudice	-11.4108
▁preserve	-11.4108
▁primitive	-11.4108
▁principal	-11.4108
▁prostitution	-11.4108
▁rabbit	-11.4108
▁racial	-11.4108
▁schlock	-11.4108
▁sensibilit	-11.4108
▁simplistic	-11.4108
▁spooky	-11.4108
▁stilted	-11.4108
▁storytelling	-11.4108
▁studied	-11.4108
▁survival	-11.4108
▁surviving	-11.4108
▁sustain	-11.4108
▁trigger	-11.4108
▁vulnerable	-11.4108
▁wardrobe	-11.4108
▁ALERT	-11.4108
▁Bishop	-11.4108
▁Hannah	-11.4108
▁McCoy	-11.4108
▁Neeley	-11.4108
▁SNL	-11.4108
▁Sleep	-11.4108
▁Twilight	-11.4108
▁academy	-11.4108
▁alarm	-11.4108
▁attribute	-11.4108
▁brilliance	-11.4108
▁client	-11.4108
▁experiencing	-11.4108
▁garden	-11.4108
▁heartwarming	-11.4108
▁license	-11.4108
▁pianist	-11.4108
▁psychology	-11.4108
▁retreat	-11.4108
▁thirties	-11.4108
▁unemploy	-11.4108
▁uninteresting	-11.4108
▁utilize	-11.4108
▁victory	-11.4108
▁Generation	-11.4108
▁Hopper	-11.4108
▁Nelson	-11.4108
▁Phillips	-11.4108
▁absence	-11.4108
▁clumsi	-11.4108
▁convol	-11.4108
▁devastat	-11.4108
▁muscle	-11.4108
▁pride	-11.4108
▁uncover	-11.4108
▁yawn	-11.4108
▁Fallon	-11.4108
▁ambition	-11.4108
▁collapse	-11.4108
▁grief	-11.4108
▁Earthsea	-11.4108
▁Indeed	-11.4108
▁Secret	-11.4108
▁Shawn	-11.4108
▁downhill	-11.4108
▁manifest	-11.4108
▁Conrad	-11.4108
▁troop	-11.4108
Hackett	-11.4108
Toole	-11.4108
▁Until	-11.4108
Brien	-11.4108
▁waitress	-11.4108
▁Original	-11.4108
▁Snake	-11.4108
▁gambl	-11.4108
▁Credit	-11.4108
▁Nanon	-11.4108
▁slashing	-11.4108
blum	-11.4108
▁spider	-11.4108
▁Bridge	-11.4108
▁motel	-11.4108
▁abomination	-11.4109
▁blend	-11.4109
▁culminat	-11.4109
▁glid	-11.4109
▁notorious	-11.4109
▁Mortal	-11.4109
▁terminal	-11.4109
▁Nude	-11.4109
▁applau	-11.4109
Claude	-11.4109
▁contest	-11.4109
▁appreciation	-11.4109
▁exceed	-11.4109
▁Compa	-11.4109
▁reunite	-11.4109
▁drifter	-11.4109
▁flavor	-11.4109
▁Kaiser	-11.4109
▁smuggl	-11.4109
▁Zooni	-11.4109
▁radical	-11.4109
▁proportions	-11.4109
▁Word	-11.4109
▁legacy	-11.4109
▁dragging	-11.4109
▁defense	-11.4109
School	-11.4109
fruit	-11.4109
▁McHugh	-11.4109
▁Peck	-11.4109
▁comprise	-11.4109
▁nail	-11.4109
▁devou	-11.4109
▁Morgan	-11.4109
▁Midget	-11.4109
▁colon	-11.4109
▁kung	-11.4109
▁exposure	-11.4109
▁Company	-11.4109
▁humble	-11.4109
▁feast	-11.4109
▁nurse	-11.4109
▁dismiss	-11.4109
▁plausible	-11.4109
▁Hurley	-11.4109
▁representative	-11.411
▁Fanning	-11.411
▁revelation	-11.411
▁financial	-11.411
▁excessive	-11.411
▁pressure	-11.411
▁exposition	-11.411
▁Jenny	-11.411
pkins	-11.411
▁Katherine	-11.411
▁Funny	-11.411
▁Definitely	-11.411
▁shove	-11.411
▁NYC	-11.411
▁Maxwell	-11.411
▁understated	-11.411
▁Bunny	-11.411
▁Glen	-11.411
▁nonetheless	-11.4111
▁limb	-11.4111
atherine	-11.4111
▁flop	-11.4111
▁ripping	-11.4111
▁adjust	-11.4111
▁Todd	-11.4111
Israel	-11.4111
▁orgy	-11.4111
▁commit	-11.4111
▁Linds	-11.4111
▁property	-11.4111
bviously	-11.4111
▁mouse	-11.4111
▁provoke	-11.4111
▁launch	-11.4111
▁monoton	-11.4112
▁replacement	-11.4112
imdb	-11.4112
▁chew	-11.4112
▁Kind	-11.4112
▁Lenny	-11.4112
▁recit	-11.4112
▁Kinne	-11.4112
Cindy	-11.4112
▁rampa	-11.4113
▁Carrol	-11.4113
▁improvement	-11.4113
▁'60	-11.4113
▁Buster	-11.4113
satisf	-11.4113
▁Randy	-11.4113
assuming	-11.4114
▁helm	-11.4114
▁Garner	-11.4114
▁parade	-11.4114
▁franchise	-11.4114
▁countryside	-11.4114
▁Drama	-11.4114
▁disappearance	-11.4114
▁Wong	-11.4115
▁minister	-11.4115
▁2000	-11.4115
▁loop	-11.4115
▁Leigh	-11.4115
▁McK	-11.4115
▁Britt	-11.4116
▁blah	-11.4116
▁Arab	-11.4116
▁secretary	-11.4116
▁clueless	-11.4116
▁Devo	-11.4116
▁dwell	-11.4116
▁linger	-11.4117
profile	-11.4117
▁popularity	-11.4119
▁lightning	-11.4119
nuelle	-11.4119
▁Guest	-11.4119
▁chair	-11.4119
▁centre	-11.4119
▁recover	-11.412
▁lake	-11.412
▁neglected	-11.412
▁Woo	-11.412
▁delica	-11.412
▁Sante	-11.412
▁Thus	-11.4121
▁tail	-11.4121
▁coach	-11.4121
▁Pea	-11.4121
▁rebel	-11.4122
▁Fuller	-11.4122
▁spout	-11.4122
▁eerie	-11.4122
AGE	-11.4122
▁jealousy	-11.4123
▁maid	-11.4123
▁render	-11.4123
▁bash	-11.4124
▁coca	-11.4124
▁Enjoy	-11.4124
▁Friends	-11.4124
▁leap	-11.4124
▁option	-11.4125
▁starred	-11.4125
▁sexuality	-11.4126
▁owe	-11.4126
▁weakness	-11.4126
▁Bank	-11.4128
▁Lake	-11.4128
▁Italy	-11.4128
▁Came	-11.4129
▁SeeD	-11.4129
▁mail	-11.4129
▁Cut	-11.4129
dark	-11.4129
▁boob	-11.4131
▁size	-11.4132
▁Murray	-11.4132
▁Unc	-11.4133
▁crashes	-11.4133
tress	-11.4133
▁regardless	-11.4134
▁Banderas	-11.4134
▁Matthew	-11.4134
▁sophisticated	-11.4134
▁Davies	-11.4134
▁Among	-11.4136
▁icon	-11.4136
▁flirt	-11.4136
▁downside	-11.4137
▁Fight	-11.4138
▁Batman	-11.4139
▁assistance	-11.4139
▁Roth	-11.414
▁helpful	-11.4141
▁distracted	-11.4143
▁polished	-11.4144
▁Marco	-11.4144
▁Cub	-11.4144
▁Inside	-11.4147
▁robbery	-11.4148
urance	-11.4148
lind	-11.415
▁devoted	-11.415
▁disgusted	-11.415
▁Human	-11.4152
▁Fry	-11.4152
▁Pass	-11.4154
uary	-11.4155
▁duo	-11.4157
▁stoned	-11.4158
▁generated	-11.4158
▁tuned	-11.4158
▁terrorism	-11.4158
▁abruptly	-11.4159
▁appalling	-11.416
▁Bray	-11.4161
▁outlaw	-11.4161
▁Ultimately	-11.4166
▁FOR	-11.4167
▁beneath	-11.4168
▁aging	-11.4169
▁noise	-11.417
▁Von	-11.417
▁climate	-11.4171
▁clad	-11.4172
▁Til	-11.4175
miss	-11.4175
▁	-11.4176
▁snap	-11.4178
▁Gone	-11.4178
formed	-11.4185
fact	-11.4186
▁conclude	-11.4187
essa	-11.4188
ivers	-11.4188
▁succeeded	-11.419
▁understandable	-11.4191
▁Tour	-11.4191
adio	-11.4196
▁reported	-11.4196
▁technically	-11.4201
▁dumber	-11.4202
▁correctly	-11.4214
▁Final	-11.4218
▁Carlo	-11.4219
▁promised	-11.4234
▁factory	-11.4246
▁lifeless	-11.4248
▁blamed	-11.4252
▁slay	-11.4255
▁grim	-11.4256
▁curse	-11.4257
▁Fle	-11.4259
▁reminder	-11.426
▁randomly	-11.4262
cean	-11.4265
▁shatter	-11.4269
▁roller	-11.4274
▁upper	-11.4275
▁cad	-11.428
▁substitut	-11.4295
dropping	-11.43
▁overdo	-11.4305
Thankfully	-11.4311
rah	-11.4312
lamb	-11.4312
ridden	-11.4313
▁Ju	-11.4317
nished	-11.4319
impos	-11.4322
erot	-11.433
▁mum	-11.4342
▁weary	-11.4347
▁definiti	-11.4372
ntage	-11.4373
▁Pain	-11.4373
▁rail	-11.4379
ANT	-11.4384
▁Leo	-11.4388
Files	-11.4415
▁bin	-11.4432
▁slapp	-11.444
ilities	-11.4446
existent	-11.446
▁hy	-11.4464
rum	-11.4492
▁tid	-11.4493
zone	-11.4498
▁duel	-11.4513
▁Insp	-11.4536
▁Por	-11.4542
Prime	-11.455
Clint	-11.4584
Rat	-11.4607
▁stra	-11.4618
▁popp	-11.4618
lph	-11.4625
▁lea	-11.4627
CK	-11.4639
▁Eli	-11.464
▁fur	-11.4653
Salv	-11.4655
LC	-11.471
hart	-11.4761
▁fil	-11.4767
▁fri	-11.4777
▁dil	-11.4779
▁tar	-11.481
Louise	-11.483
ensible	-11.4843
elves	-11.4847
quit	-11.4883
▁tap	-11.4885
▁Din	-11.4902
cious	-11.4922
▁Name	-11.4943
cide	-11.4959
isation	-11.4966
grow	-11.4966
comfortable	-11.4967
trospective	-11.4968
destructi	-11.497
▁mega	-11.4995
▁cent	-11.4997
▁Victoria	-11.5002
▁reco	-11.5008
▁lone	-11.5023
riz	-11.5057
nik	-11.5082
▁Mama	-11.5143
asha	-11.5145
idge	-11.5179
ksha	-11.5198
▁pul	-11.5203
▁litera	-11.5224
▁inform	-11.5232
will	-11.5239
word	-11.526
▁tub	-11.53
attling	-11.5313
Ja	-11.5322
▁Jam	-11.5354
Cross	-11.5364
▁Plo	-11.5366
Gangs	-11.5369
produced	-11.5383
▁biograph	-11.5392
01	-11.5436
▁require	-11.5451
▁explosion	-11.5474
▁*****	-11.5475
▁corpse	-11.5476
PS	-11.5482
▁Rap	-11.5524
layer	-11.5543
mash	-11.5564
igfoot	-11.5576
ardo	-11.5576
WO	-11.558
▁sensational	-11.5596
▁Left	-11.5608
▁demo	-11.564
▁slap	-11.5646
▁disgust	-11.5667
▁vers	-11.5669
serted	-11.567
1000	-11.569
▁slip	-11.5693
▁acqui	-11.5696
▁fram	-11.5701
know	-11.5705
▁fiancé	-11.5708
clad	-11.5708
Alien	-11.5708
Evil	-11.5709
▁Bla	-11.5709
Acting	-11.5709
Again	-11.571
Frank	-11.5711
Second	-11.5711
Okay	-11.5711
Lesl	-11.5711
Dracula	-11.5711
Film	-11.5712
	-11.5712
perhaps	-11.5712
girlfriend	-11.5712
together	-11.5712
nothing	-11.5714
Charlie	-11.5714
Jason	-11.5714
second	-11.5714
efully	-11.5714
serious	-11.5716
scary	-11.5716
motion	-11.5717
born	-11.5717
▁appall	-11.5717
▁stunn	-11.5718
flick	-11.5718
Penn	-11.5719
▁climat	-11.572
monster	-11.5721
married	-11.5722
Good	-11.5723
Jake	-11.5723
half	-11.5724
box	-11.5725
▁devot	-11.5726
▁accomplish	-11.5726
Joan	-11.5727
▁construct	-11.5728
Ultimately	-11.5728
▁doom	-11.5729
when	-11.5731
Take	-11.5732
whe	-11.5732
▁qua	-11.5733
Lou	-11.5735
Yet	-11.5737
▁engage	-11.5738
▁inspire	-11.5739
berg	-11.574
▁cinematograph	-11.575
Give	-11.575
PG	-11.5753
▁Edw	-11.5758
▁hopeful	-11.5762
▁twi	-11.5767
▁south	-11.5767
▁convict	-11.5767
nvisible	-11.5768
▁overact	-11.5769
hour	-11.5769
▁Burt	-11.5771
▁interpret	-11.5772
raitor	-11.5773
hroughout	-11.5773
▁charisma	-11.5773
▁differ	-11.5773
▁equi	-11.5773
▁taxi	-11.5773
▁tele	-11.5774
avorite	-11.5774
▁excess	-11.5774
tinct	-11.5774
▁stereo	-11.5775
▁Down	-11.5775
▁cyber	-11.5775
è	-11.5775
▁Colossus	-11.5775
▁opponent	-11.5775
AVOID	-11.5775
Additionally	-11.5775
Casablanca	-11.5775
Kraken	-11.5775
Malcolm	-11.5775
Script	-11.5775
anja	-11.5775
ccuracy	-11.5775
comprehension	-11.5775
hirlpool	-11.5775
imaginable	-11.5775
rwegian	-11.5775
▁1931	-11.5775
▁1972	-11.5775
▁1997	-11.5775
▁2007	-11.5775
▁Aykroyd	-11.5775
▁BDSM	-11.5775
▁Beatles	-11.5775
▁Beijing	-11.5775
▁Blanche	-11.5775
▁Bravo	-11.5775
▁Buñuel	-11.5775
▁Caldwell	-11.5775
▁Cassidy	-11.5775
▁Confedera	-11.5775
▁Cusack	-11.5775
▁Diederich	-11.5775
▁Emissary	-11.5775
▁Eventually	-11.5775
▁FILM	-11.5775
▁Fairbanks	-11.5775
▁Florida	-11.5775
▁Gibson	-11.5775
▁Gustave	-11.5775
▁Hackman	-11.5775
▁IMHO	-11.5775
▁Jitlov	-11.5775
▁Korvo	-11.5775
▁Kurosawa	-11.5775
▁Labyrinth	-11.5775
▁Lieutenant	-11.5775
▁Lombard	-11.5775
▁Magnum	-11.5775
▁Major	-11.5775
▁Matrix	-11.5775
▁McGavin	-11.5775
▁McGovern	-11.5775
▁Melissa	-11.5775
▁Paramount	-11.5775
▁Personally	-11.5775
▁Pfeiffer	-11.5775
▁Professor	-11.5775
▁Recommended	-11.5775
▁Reinhold	-11.5775
▁Republic	-11.5775
▁Rydell	-11.5775
▁Sarandon	-11.5775
▁Sebastian	-11.5775
▁Similar	-11.5775
▁Society	-11.5775
▁Strieber	-11.5775
▁Sylvester	-11.5775
▁Tudor	-11.5775
▁Turkey	-11.5775
▁Tyrone	-11.5775
▁WORST	-11.5775
▁acknowledg	-11.5775
▁activities	-11.5775
▁adolescent	-11.5775
▁advertised	-11.5775
▁aesthetic	-11.5775
▁alternative	-11.5775
▁ambiance	-11.5775
▁artificial	-11.5775
▁asylum	-11.5775
▁blunt	-11.5775
▁capsule	-11.5775
▁ceiling	-11.5775
▁celebrat	-11.5775
▁celebrities	-11.5775
▁celluloid	-11.5775
▁censors	-11.5775
▁circle	-11.5775
▁coffee	-11.5775
▁coherent	-11.5775
▁colleague	-11.5775
▁communicate	-11.5775
▁communication	-11.5775
▁comprehend	-11.5775
▁contribution	-11.5775
▁controversy	-11.5775
▁counsel	-11.5775
▁cruising	-11.5775
▁declare	-11.5775
▁delusion	-11.5775
▁disastrous	-11.5775
▁dishonest	-11.5775
▁disregard	-11.5775
▁domestic	-11.5775
▁embodie	-11.5775
▁ensues	-11.5775
▁enthusiasm	-11.5775
▁envelope	-11.5775
▁frustrating	-11.5775
▁fulfill	-11.5775
▁furniture	-11.5775
▁generic	-11.5775
▁gimmick	-11.5775
▁glorious	-11.5775
▁grotesque	-11.5775
▁guitar	-11.5775
▁hallucinat	-11.5775
▁hilarity	-11.5775
▁historian	-11.5775
▁imitation	-11.5775
▁insecure	-11.5775
▁insipid	-11.5775
▁irresistible	-11.5775
▁jet	-11.5775
▁lavish	-11.5775
▁lobby	-11.5775
▁loneliness	-11.5775
▁massacre	-11.5775
▁mediocrity	-11.5775
▁milieu	-11.5775
▁narrow	-11.5775
▁nervous	-11.5775
▁nightclub	-11.5775
▁nostalgia	-11.5775
▁occupied	-11.5775
▁optimism	-11.5775
▁patrons	-11.5775
▁perceive	-11.5775
▁poetry	-11.5775
▁principle	-11.5775
▁prominent	-11.5775
▁psyche	-11.5775
▁punctuate	-11.5775
▁racket	-11.5775
▁recipe	-11.5775
▁refuge	-11.5775
▁relevant	-11.5775
▁repulsive	-11.5775
▁rodeo	-11.5775
▁satirical	-11.5775
▁secure	-11.5775
▁senior	-11.5775
▁simultaneously	-11.5775
▁sleaze	-11.5775
▁squeeze	-11.5775
▁stalwart	-11.5775
▁suspend	-11.5775
▁swamp	-11.5775
▁tomorrow	-11.5775
▁triumph	-11.5775
▁unacceptable	-11.5775
▁unanswered	-11.5775
▁unavoidable	-11.5775
▁undeniabl	-11.5775
▁unnerving	-11.5775
▁vignette	-11.5775
▁volcano	-11.5775
distinguish	-11.5775
▁2/10	-11.5775
▁Believe	-11.5775
▁Chief	-11.5775
▁Chopra	-11.5775
▁Craven	-11.5775
▁Jagger	-11.5775
▁Mardukas	-11.5775
▁automatic	-11.5775
▁caution	-11.5775
▁condemn	-11.5775
▁distribut	-11.5775
▁dreary	-11.5775
▁fabricat	-11.5775
▁fencing	-11.5775
▁glance	-11.5775
▁imprison	-11.5775
▁infatuat	-11.5775
▁monument	-11.5775
▁strangle	-11.5775
▁swashbuckl	-11.5775
▁tattoo	-11.5775
▁undercover	-11.5775
▁unfair	-11.5775
▁voting	-11.5775
▁Apple	-11.5775
▁Enemy	-11.5775
▁HBO	-11.5775
▁Hooper	-11.5775
▁despicable	-11.5775
▁essence	-11.5775
▁gloss	-11.5775
▁hijack	-11.5775
▁panache	-11.5775
▁pistol	-11.5775
▁shaky	-11.5775
▁violin	-11.5775
▁Place	-11.5775
▁balloon	-11.5775
▁bloated	-11.5775
▁debate	-11.5775
▁frantic	-11.5775
▁injustice	-11.5775
▁sweep	-11.5775
turtle	-11.5775
▁Magic	-11.5775
▁Momoa	-11.5775
▁Possibly	-11.5775
▁Sundance	-11.5775
▁Tanner	-11.5775
▁bicker	-11.5775
▁blackmail	-11.5775
▁interior	-11.5775
▁mysteries	-11.5775
▁reserve	-11.5775
▁spawn	-11.5775
▁thumbs	-11.5775
▁universal	-11.5775
▁Glass	-11.5775
▁conceal	-11.5775
▁destruction	-11.5775
▁pigeon	-11.5775
▁scope	-11.5775
▁Berlin	-11.5775
▁Watson	-11.5775
▁confine	-11.5775
▁hippie	-11.5775
▁ingenious	-11.5775
▁trio	-11.5775
-17	-11.5775
▁barrel	-11.5775
▁heartbreaking	-11.5775
▁revive	-11.5775
▁Gould	-11.5775
▁acclaim	-11.5775
▁conveniently	-11.5775
▁valid	-11.5775
▁skirt	-11.5775
knack	-11.5775
▁Blade	-11.5775
▁Doyle	-11.5775
▁Sophie	-11.5775
▁unstable	-11.5775
▁tip	-11.5775
▁Actress	-11.5775
▁Noah	-11.5775
▁countries	-11.5775
▁dismal	-11.5775
▁disabled	-11.5775
▁Sandra	-11.5775
▁dash	-11.5775
▁profit	-11.5775
▁amoral	-11.5775
hronicle	-11.5775
▁enchanting	-11.5775
▁Collins	-11.5775
▁Kyle	-11.5775
Video	-11.5775
▁Wendy	-11.5775
▁trace	-11.5775
yanka	-11.5775
▁Reiner	-11.5775
▁atrocit	-11.5775
▁essay	-11.5775
▁sickening	-11.5775
▁Shearer	-11.5775
▁baffl	-11.5775
▁menace	-11.5775
▁repris	-11.5775
▁Tomei	-11.5775
▁trend	-11.5775
▁seduction	-11.5775
▁Saint	-11.5775
▁remarkably	-11.5775
▁isolated	-11.5775
▁Farrell	-11.5775
▁Raymond	-11.5775
▁Naturally	-11.5775
▁Cannes	-11.5775
▁slut	-11.5775
▁courtroom	-11.5776
▁Thelma	-11.5776
▁Maurice	-11.5776
▁assembled	-11.5776
▁cartel	-11.5776
▁interlude	-11.5776
▁pervers	-11.5776
▁Sunday	-11.5776
▁Steel	-11.5776
▁civilization	-11.5776
▁montage	-11.5776
▁yarn	-11.5776
▁glamorous	-11.5776
▁Tower	-11.5776
▁Paige	-11.5776
▁contend	-11.5776
▁athlet	-11.5776
▁lacklust	-11.5776
▁misfire	-11.5776
▁screwball	-11.5776
▁reverse	-11.5776
▁Arnie	-11.5776
▁nasti	-11.5776
▁Lovecraft	-11.5776
▁debt	-11.5776
▁Fiction	-11.5776
inducing	-11.5776
▁resonate	-11.5776
onymous	-11.5776
TUR	-11.5776
▁distress	-11.5776
▁wrapped	-11.5776
▁Legs	-11.5776
▁prize	-11.5776
▁Brooklyn	-11.5776
▁hunk	-11.5776
▁meditation	-11.5776
Jolie	-11.5777
alog	-11.5777
▁shore	-11.5777
▁halt	-11.5777
▁1947	-11.5777
▁Izo	-11.5777
▁skiing	-11.5777
▁baseball	-11.5777
▁cloud	-11.5777
▁household	-11.5777
▁Morris	-11.5777
▁Hellboy	-11.5777
▁chess	-11.5777
▁Court	-11.5777
▁leather	-11.5777
▁assault	-11.5777
▁youngsters	-11.5777
ILL	-11.5777
▁giggl	-11.5778
quisite	-11.5778
▁hammy	-11.5778
▁whiny	-11.5778
▁racing	-11.5778
▁Duane	-11.5778
▁Dutch	-11.5778
▁Nicholson	-11.5778
▁shark	-11.5778
▁vital	-11.5778
▁excel	-11.5778
enator	-11.5778
▁outfit	-11.5778
Nicol	-11.5778
▁1920	-11.5778
▁phenomenal	-11.5778
▁savage	-11.5778
▁Foster	-11.5778
▁undeserved	-11.5778
▁collective	-11.5778
ombat	-11.5779
▁Veroni	-11.5779
▁beef	-11.5779
▁hatred	-11.5779
▁indication	-11.5779
▁romp	-11.5779
▁Club	-11.5779
86	-11.5779
tacle	-11.5779
▁stamp	-11.5779
▁Hogan	-11.5779
▁tourist	-11.5779
▁Showtime	-11.5779
▁mummy	-11.5779
▁compil	-11.578
▁Northam	-11.578
▁terminat	-11.578
▁admirable	-11.578
▁Monster	-11.578
▁thrust	-11.578
▁MTV	-11.578
▁insightful	-11.578
▁lifeboat	-11.578
SHM	-11.578
mascu	-11.578
▁WAY	-11.578
▁regime	-11.578
▁employee	-11.578
▁Burton	-11.578
▁woke	-11.578
▁priceless	-11.578
▁mutant	-11.5781
▁joyful	-11.5781
▁Linus	-11.5781
▁Sandy	-11.5781
▁Madam	-11.5781
▁grating	-11.5781
▁Corey	-11.5781
▁edition	-11.5782
▁Executive	-11.5782
▁detect	-11.5782
▁glue	-11.5782
▁Often	-11.5782
▁magician	-11.5783
▁glee	-11.5783
▁BUT	-11.5783
▁claw	-11.5783
▁Giant	-11.5784
▁election	-11.5784
▁cities	-11.5784
LAND	-11.5785
advert	-11.5785
▁strain	-11.5785
▁Nolan	-11.5785
▁Eastman	-11.5785
▁Hunter	-11.5785
▁betrayal	-11.5785
▁Lady	-11.5786
▁educated	-11.5786
▁eliminated	-11.5786
ONG	-11.5786
▁Father	-11.5786
▁educational	-11.5786
simo	-11.5786
▁Hilar	-11.5786
▁Luis	-11.5786
Serial	-11.5786
▁passive	-11.5786
▁fog	-11.5787
ndition	-11.5787
▁amused	-11.5787
▁satan	-11.5787
▁representation	-11.5788
OND	-11.5789
lude	-11.5789
xorcis	-11.5789
▁shameless	-11.5789
▁remade	-11.579
▁vain	-11.5791
▁antics	-11.5792
▁scam	-11.5792
▁rage	-11.5792
▁nearby	-11.5792
▁dumbest	-11.5793
▁Mother	-11.5794
▁Yau	-11.5794
▁SEE	-11.5794
▁Suddenly	-11.5794
▁communist	-11.5794
▁Colonel	-11.5794
▁inflict	-11.5794
▁CAN	-11.5795
▁Audr	-11.5795
▁promoter	-11.5795
▁Lyn	-11.5796
▁Gay	-11.5797
▁spice	-11.5798
▁Kitt	-11.5798
▁witnesses	-11.5799
▁mock	-11.5799
▁Full	-11.58
▁Ferr	-11.5801
▁sail	-11.5801
hett	-11.5802
▁35	-11.5802
▁bold	-11.5803
▁iron	-11.5803
laced	-11.5804
▁Topo	-11.5805
▁CHA	-11.5805
▁27	-11.5806
▁verg	-11.5806
▁Maris	-11.5806
▁Escape	-11.5806
▁stairs	-11.5807
▁Topper	-11.5808
1988	-11.5808
▁Wonderful	-11.5809
▁Wilder	-11.581
▁Sina	-11.5811
▁WW	-11.5812
Madsen	-11.5814
▁Bright	-11.5815
▁Wish	-11.5815
Open	-11.5815
▁relaxed	-11.5816
Bird	-11.5816
▁Shu	-11.5817
enberg	-11.5818
ggle	-11.5819
▁kidnapper	-11.5819
▁overrated	-11.582
▁Raw	-11.5821
Speak	-11.5823
▁preachy	-11.5824
▁Indiana	-11.5825
▁divorced	-11.5827
▁Break	-11.5828
▁manga	-11.5828
▁merc	-11.5828
▁patho	-11.5829
▁homeless	-11.5829
▁Truly	-11.583
▁Gate	-11.5832
▁Cale	-11.5833
▁assist	-11.5834
▁weave	-11.5836
▁needless	-11.5836
Get	-11.5837
▁Fast	-11.5838
▁filler	-11.5839
▁Dave	-11.5839
▁fallen	-11.5841
▁map	-11.5841
▁spine	-11.5842
▁Seven	-11.5843
splitting	-11.5847
lumber	-11.5848
esque	-11.5848
▁Try	-11.5852
▁Grey	-11.5855
▁duration	-11.5856
▁setup	-11.5857
▁Hur	-11.5857
▁glove	-11.5861
▁acquire	-11.5862
utting	-11.5864
▁fift	-11.5869
▁mango	-11.5871
▁Zh	-11.5872
▁slipp	-11.5874
everal	-11.5874
▁Temp	-11.5875
▁8/10	-11.588
▁BR	-11.5893
▁Lone	-11.5895
estro	-11.5904
▁Rear	-11.5905
▁Hare	-11.5905
laden	-11.5908
▁trou	-11.5912
▁grabb	-11.5914
▁bug	-11.5917
▁Meg	-11.5929
▁cement	-11.5936
▁shocker	-11.5939
▁slid	-11.5944
▁tasteful	-11.5952
▁Kris	-11.5964
Strange	-11.5964
▁argu	-11.5968
nstop	-11.5975
ummer	-11.5975
hungry	-11.599
▁wipe	-11.6001
▁captivate	-11.6002
TIC	-11.6042
▁rider	-11.6053
icid	-11.6054
▁Terr	-11.6055
▁terroriz	-11.6076
cine	-11.6088
Fat	-11.6092
AST	-11.6112
Rated	-11.6116
bil	-11.613
kov	-11.6146
Cheap	-11.6175
▁wh	-11.6176
rks	-11.6244
▁continual	-11.6293
Beast	-11.6316
ollow	-11.6316
▁rob	-11.6344
rida	-11.6345
▁Anim	-11.6346
Off	-11.6355
tube	-11.6382
▁alb	-11.6409
ACT	-11.6418
▁Jer	-11.6438
onnie	-11.6462
▁medi	-11.6492
fide	-11.6495
▁believ	-11.6514
high	-11.6581
▁supervis	-11.6595
NG	-11.6597
augh	-11.6624
annon	-11.6625
▁stee	-11.6627
uslim	-11.6639
▁Kud	-11.6688
▁prepar	-11.6697
PER	-11.6732
▁Rodd	-11.6748
▁rang	-11.6761
▁sacrific	-11.6784
ollar	-11.6799
oming	-11.6812
▁Dance	-11.6827
tained	-11.684
▁stereotyp	-11.6865
▁dish	-11.6872
▁Hale	-11.6877
huh	-11.6879
▁unhapp	-11.6883
ruff	-11.6945
nimal	-11.6947
▁Shir	-11.6949
active	-11.6965
witted	-11.6967
pecifically	-11.7004
tealth	-11.7007
reacher	-11.7022
▁disco	-11.7043
order	-11.7052
▁REA	-11.706
compensate	-11.7105
organize	-11.7142
▁Tag	-11.7189
Cru	-11.7198
▁Home	-11.7215
centered	-11.7216
enor	-11.7233
▁tee	-11.7265
Bring	-11.7283
TING	-11.729
version	-11.7295
*********	-11.7311
ICE	-11.7321
▁Kir	-11.7324
▁Yo	-11.7334
▁til	-11.7341
▁slim	-11.7344
finitely	-11.7365
Tell	-11.7391
▁tea	-11.7404
Tale	-11.7411
grad	-11.7453
▁angle	-11.7484
▁gag	-11.7495
cross	-11.75
geant	-11.7535
cluded	-11.7549
position	-11.7554
▁Nam	-11.7564
▁dimension	-11.7576
▁remov	-11.7576
epper	-11.7584
spiring	-11.7594
▁pose	-11.7595
▁Vol	-11.7626
▁describ	-11.7636
▁distract	-11.7664
special	-11.7672
▁edit	-11.7675
▁Schu	-11.7691
▁idio	-11.7698
▁hav	-11.7704
$	-11.7707
terrorism	-11.7708
suit	-11.7709
Basically	-11.7709
Special	-11.7709
provoking	-11.7709
resolved	-11.7709
Jimmy	-11.7709
General	-11.771
Michell	-11.771
drawn	-11.771
storm	-11.771
Daniel	-11.7711
Roger	-11.7711
driven	-11.7711
guard	-11.7711
Chris	-11.7711
Lewis	-11.7711
typical	-11.7712
developed	-11.7712
People	-11.7712
culture	-11.7712
Though	-11.7712
depth	-11.7712
possible	-11.7712
Movie	-11.7712
Vince	-11.7712
space	-11.7712
Boy	-11.7712
complete	-11.7712
meaning	-11.7712
release	-11.7712
particular	-11.7712
video	-11.7712
actually	-11.7713
filled	-11.7713
school	-11.7713
again	-11.7713
House	-11.7713
strong	-11.7713
obvious	-11.7714
actress	-11.7714
gift	-11.7715
▁(194	-11.7716
Where	-11.7716
wanted	-11.7717
fiction	-11.7717
Plan	-11.7718
disc	-11.7718
FOR	-11.7722
Two	-11.7723
woman	-11.7723
▁relax	-11.7725
LAS	-11.7726
game	-11.7728
▁polish	-11.773
▁trail	-11.773
▁cheat	-11.7732
certain	-11.7733
Wow	-11.7734
▁grant	-11.7734
grown	-11.7735
▁Tru	-11.7736
▁resolve	-11.7738
Mark	-11.7741
▁vampir	-11.7741
camera	-11.7746
Dick	-11.7747
Gun	-11.7751
▁futur	-11.7751
▁polic	-11.7756
▁announce	-11.7761
▁elect	-11.7764
noir	-11.7764
▁chuck	-11.7766
▁bodi	-11.7766
▁slight	-11.7767
▁thru	-11.7769
▁Silver	-11.7772
▁homosexual	-11.7772
cision	-11.7772
▁sensual	-11.7773
▁loyal	-11.7773
entury	-11.7774
bject	-11.7774
▁snob	-11.7774
stract	-11.7774
▁intellect	-11.7774
▁Champion	-11.7775
▁candid	-11.7775
eyond	-11.7775
>	-11.7775
▁plod	-11.7775
phrase	-11.7775
]	-11.7775
▁1976	-11.7775
▁Sergio	-11.7775
▁deprav	-11.7775
▁gravit	-11.7775
▁unpleasant	-11.7775
Citizen	-11.7775
Confession	-11.7775
DEAD	-11.7775
Goodfellas	-11.7775
MOST	-11.7775
Shahrukh	-11.7775
Written	-11.7775
conceivable	-11.7775
iscuit	-11.7775
lphabet	-11.7775
otorcycle	-11.7775
rdinarily	-11.7775
sumptuous	-11.7775
▁1964	-11.7775
▁1975	-11.7775
▁1989	-11.7775
▁1992	-11.7775
▁1995	-11.7775
▁Amazon	-11.7775
▁Aquaman	-11.7775
▁Autry	-11.7775
▁Bolivia	-11.7775
▁Broderick	-11.7775
▁Buscemi	-11.7775
▁Carandiru	-11.7775
▁Cardinal	-11.7775
▁College	-11.7775
▁Cronenberg	-11.7775
▁DeMille	-11.7775
▁Dodsworth	-11.7775
▁EMPIRE	-11.7775
▁Encounter	-11.7775
▁FUNNY	-11.7775
▁Fenech	-11.7775
▁Fletcher	-11.7775
▁Fulci	-11.7775
▁Gabriel	-11.7775
▁GamerZ	-11.7775
▁Graffiti	-11.7775
▁Gulliver	-11.7775
▁Hallmark	-11.7775
▁Honestly	-11.7775
▁Hungarian	-11.7775
▁Ivashov	-11.7775
▁Kapoor	-11.7775
▁Kristofferson	-11.7775
▁Lampoon	-11.7775
▁Lansbury	-11.7775
▁Lawrence	-11.7775
▁Lieberman	-11.7775
▁Lupino	-11.7775
▁MASSACRE	-11.7775
▁Mattelli	-11.7775
▁Matthau	-11.7775
▁McConaughey	-11.7775
▁McKimson	-11.7775
▁McPhee	-11.7775
▁Meredith	-11.7775
▁Morticia	-11.7775
▁PLAN	-11.7775
▁Papillon	-11.7775
▁Pleasance	-11.7775
▁Plummer	-11.7775
▁Preminger	-11.7775
▁Project	-11.7775
▁Python	-11.7775
▁Reynolds	-11.7775
▁Romero	-11.7775
▁Seymour	-11.7775
▁Skull	-11.7775
▁Stevie	-11.7775
▁Streisand	-11.7775
▁Technicolor	-11.7775
▁Tinkerbell	-11.7775
▁VIII	-11.7775
▁Venice	-11.7775
▁WRONG	-11.7775
▁Wisconsin	-11.7775
▁Zappa	-11.7775
▁amusement	-11.7775
▁analyze	-11.7775
▁assumption	-11.7775
▁astronaut	-11.7775
▁bachelor	-11.7775
▁bewilder	-11.7775
▁boast	-11.7775
▁calendar	-11.7775
▁ceremony	-11.7775
▁chocolate	-11.7775
▁completist	-11.7775
▁creativity	-11.7775
▁critique	-11.7775
▁debacle	-11.7775
▁decency	-11.7775
▁delinquent	-11.7775
▁demographic	-11.7775
▁desolate	-11.7775
▁economy	-11.7775
▁electronic	-11.7775
▁elephant	-11.7775
▁elevate	-11.7775
▁empathy	-11.7775
▁entendre	-11.7775
▁equipment	-11.7775
▁escort	-11.7775
▁examination	-11.7775
▁extravagan	-11.7775
▁fantasies	-11.7775
▁foreboding	-11.7775
▁frustrated	-11.7775
▁glaring	-11.7775
▁gloom	-11.7775
▁gorilla	-11.7775
▁gossip	-11.7775
▁gracious	-11.7775
▁granddaughter	-11.7775
▁grandmother	-11.7775
▁hockey	-11.7775
▁hypocritical	-11.7775
▁impeccabl	-11.7775
▁implied	-11.7775
▁improvis	-11.7775
▁inaccuracies	-11.7775
▁injury	-11.7775
▁innovation	-11.7775
▁irrelevant	-11.7775
▁journalist	-11.7775
▁lecture	-11.7775
▁marvellous	-11.7775
▁occupation	-11.7775
▁occurrence	-11.7775
▁overblown	-11.7775
▁pattern	-11.7775
▁percepti	-11.7775
▁physics	-11.7775
▁politician	-11.7775
▁princess	-11.7775
▁psychopath	-11.7775
▁puppy	-11.7775
▁rebellious	-11.7775
▁recruit	-11.7775
▁recycl	-11.7775
▁register	-11.7775
▁reluctant	-11.7775
▁resentment	-11.7775
▁responsibility	-11.7775
▁satisfaction	-11.7775
▁saucers	-11.7775
▁scantily	-11.7775
▁schedule	-11.7775
▁silliness	-11.7775
▁simulat	-11.7775
▁statistics	-11.7775
▁strategy	-11.7775
▁stylized	-11.7775
▁suspicion	-11.7775
▁synopsis	-11.7775
▁terrain	-11.7775
▁traffic	-11.7775
▁understatement	-11.7775
▁unfamiliar	-11.7775
▁unleash	-11.7775
▁unravel	-11.7775
▁unsatisfying	-11.7775
▁unsympathetic	-11.7775
▁voyeur	-11.7775
▁wretched	-11.7775
Dumplings	-11.7775
▁1981	-11.7775
▁2003	-11.7775
▁Apache	-11.7775
▁Chandler	-11.7775
▁Claire	-11.7775
▁Depression	-11.7775
▁Dwarf	-11.7775
▁Ernest	-11.7775
▁Harlem	-11.7775
▁Mirren	-11.7775
▁Odets	-11.7775
▁Remember	-11.7775
▁Snaps	-11.7775
▁Steiffel	-11.7775
▁Stupid	-11.7775
▁Yossi	-11.7775
▁anguish	-11.7775
▁arrogan	-11.7775
▁chaotic	-11.7775
▁conduct	-11.7775
▁confident	-11.7775
▁constrain	-11.7775
▁descend	-11.7775
▁dictator	-11.7775
▁enthrall	-11.7775
▁filthy	-11.7775
▁fodder	-11.7775
▁french	-11.7775
▁galaxy	-11.7775
▁interchang	-11.7775
▁obese	-11.7775
▁pancake	-11.7775
▁plunge	-11.7775
▁pranks	-11.7775
▁prequel	-11.7775
▁silver	-11.7775
UGE	-11.7775
▁1994	-11.7775
▁Akira	-11.7775
▁Alfred	-11.7775
▁Beauty	-11.7775
▁Castle	-11.7775
▁Legend	-11.7775
▁Network	-11.7775
▁Oddly	-11.7775
▁Sheridan	-11.7775
▁WHY	-11.7775
▁hindsight	-11.7775
▁inhabit	-11.7775
▁recurr	-11.7775
▁toddler	-11.7775
▁zoom	-11.7775
Bottom	-11.7775
Levitt	-11.7775
▁Knight	-11.7775
▁Recent	-11.7775
▁Soldier	-11.7775
▁adorable	-11.7775
▁bonus	-11.7775
▁brooding	-11.7775
▁feather	-11.7775
▁snuff	-11.7775
▁sugar	-11.7775
▁unwilling	-11.7775
▁Continui	-11.7775
▁Seifer	-11.7775
▁conceit	-11.7775
▁mischie	-11.7775
▁sabotag	-11.7775
▁stylist	-11.7775
▁Ashley	-11.7775
▁Cassie	-11.7775
▁Guild	-11.7775
▁Lyric	-11.7775
▁Payne	-11.7775
▁Slater	-11.7775
▁inhabitants	-11.7775
▁penetrat	-11.7775
▁wisdom	-11.7775
olstice	-11.7775
▁Landis	-11.7775
▁Nathan	-11.7775
▁Sellers	-11.7775
▁mockery	-11.7775
OTHER	-11.7775
▁Forsythe	-11.7775
▁History	-11.7775
▁abusive	-11.7775
▁degenerate	-11.7775
▁warrant	-11.7775
▁Sorkin	-11.7775
▁Woman	-11.7775
▁acquaint	-11.7775
▁motif	-11.7775
▁session	-11.7775
▁Aamir	-11.7775
▁Springer	-11.7775
▁conquer	-11.7775
▁niece	-11.7775
▁DRI	-11.7775
▁Hawn	-11.7775
▁relieved	-11.7775
reliable	-11.7775
▁Abner	-11.7775
▁sanity	-11.7775
▁testimon	-11.7775
▁vibrant	-11.7775
▁Hughes	-11.7775
▁Nurse	-11.7775
▁assembly	-11.7775
▁surpasse	-11.7775
▁deadpan	-11.7775
churning	-11.7775
refined	-11.7775
▁Islam	-11.7775
▁afford	-11.7775
▁epitom	-11.7775
Dangerous	-11.7775
▁Hatton	-11.7775
▁Storm	-11.7775
baked	-11.7775
▁Sherman	-11.7775
ternity	-11.7775
▁Horse	-11.7775
▁opus	-11.7775
▁Salman	-11.7775
Haunted	-11.7775
▁mankind	-11.7775
▁molest	-11.7775
▁exude	-11.7775
▁Ellen	-11.7775
▁eleven	-11.7775
▁chops	-11.7775
▁Heather	-11.7775
remors	-11.7775
▁mondo	-11.7775
▁vows	-11.7775
▁protest	-11.7775
▁Jesus	-11.7775
▁Josh	-11.7775
▁boggl	-11.7775
▁presume	-11.7775
▁Fear	-11.7775
▁Bernstein	-11.7775
▁authoritarian	-11.7775
▁unfathomabl	-11.7775
▁Anais	-11.7775
▁motor	-11.7775
▁weather	-11.7775
▁Rusty	-11.7775
▁salvation	-11.7776
▁minefield	-11.7776
▁Goldberg	-11.7776
▁hypnotic	-11.7776
immature	-11.7776
▁precede	-11.7776
Thriller	-11.7776
▁sappy	-11.7776
▁Cult	-11.7776
▁crocodile	-11.7776
▁prototyp	-11.7776
rray	-11.7776
▁Picard	-11.7776
▁pills	-11.7776
▁fraud	-11.7776
▁temporar	-11.7776
▁Joyce	-11.7776
▁suave	-11.7776
▁orphanage	-11.7776
▁Beery	-11.7776
▁Teres	-11.7776
▁hurry	-11.7776
▁route	-11.7776
▁speculat	-11.7776
▁Trav	-11.7776
▁Sidney	-11.7776
▁Redford	-11.7776
▁furious	-11.7776
▁punish	-11.7776
▁statue	-11.7776
▁pagan	-11.7776
▁prospective	-11.7776
▁STAR	-11.7776
▁Linney	-11.7776
▁lens	-11.7776
HOW	-11.7776
▁outdated	-11.7776
▁proceedings	-11.7776
▁captivating	-11.7776
▁inflat	-11.7776
▁void	-11.7776
▁edgy	-11.7776
▁Ringo	-11.7777
▁Starcraft	-11.7777
▁Theatre	-11.7777
▁Wife	-11.7777
▁Mountain	-11.7777
▁Meyer	-11.7777
▁consol	-11.7777
▁cowboy	-11.7777
▁sunset	-11.7777
▁percent	-11.7777
Snatch	-11.7777
▁flood	-11.7777
▁rig	-11.7777
Legion	-11.7777
▁enlist	-11.7777
lbritton	-11.7777
▁miniseries	-11.7777
▁Bennie	-11.7777
▁Cheung	-11.7777
▁bumbling	-11.7777
▁authorities	-11.7777
▁libert	-11.7777
▁rogue	-11.7777
▁identifie	-11.7777
▁Angelina	-11.7777
▁candidate	-11.7777
▁Warcraft	-11.7777
▁Farrow	-11.7777
▁charismatic	-11.7777
▁hostile	-11.7777
▁Archer	-11.7778
▁characteristics	-11.7778
Shadow	-11.7778
▁Levy	-11.7778
▁Marple	-11.7778
▁standpoint	-11.7778
▁ignorant	-11.7778
▁crank	-11.7778
▁requirement	-11.7778
▁bleed	-11.7778
▁finesse	-11.7778
▁Neverland	-11.7778
▁pelt	-11.7778
▁Bertie	-11.7778
▁glorif	-11.7778
spiral	-11.7778
▁Planet	-11.7778
▁cried	-11.7778
▁unforgivable	-11.7778
pectrum	-11.7778
▁Anglo	-11.7778
▁Silverman	-11.7778
▁Weird	-11.7779
▁misunderstand	-11.7779
▁mentor	-11.7779
▁socialite	-11.7779
▁WWE	-11.7779
▁paycheck	-11.7779
▁tint	-11.7779
▁Pitt	-11.7779
▁instruct	-11.7779
▁tonight	-11.7779
▁wolf	-11.7779
▁buddies	-11.7779
▁hamper	-11.7779
▁stripper	-11.7779
▁label	-11.7779
▁Loren	-11.7779
▁Lohan	-11.7779
▁Piper	-11.7779
▁yard	-11.778
▁youthful	-11.778
▁chaos	-11.778
▁superstar	-11.778
▁spaceship	-11.778
▁Brits	-11.778
▁wax	-11.778
▁angst	-11.778
▁authenticity	-11.778
▁paranoia	-11.778
▁fiance	-11.778
▁Hector	-11.778
▁trite	-11.7781
pelling	-11.7781
▁assassination	-11.7781
▁Conway	-11.7781
▁Somewhere	-11.7781
▁underworld	-11.7781
▁petty	-11.7781
▁Heston	-11.7781
▁Garland	-11.7781
▁Spock	-11.7781
▁homo	-11.7781
▁underwritten	-11.7782
▁Ruby	-11.7782
▁Miser	-11.7782
▁Winter	-11.7782
▁pranc	-11.7782
▁Valeri	-11.7782
▁Monty	-11.7783
▁turk	-11.7783
▁shade	-11.7784
▁stopping	-11.7784
▁puff	-11.7784
▁traitor	-11.7784
heimer	-11.7784
▁Sheila	-11.7784
▁sailor	-11.7784
▁Step	-11.7785
▁conviction	-11.7785
▁vibe	-11.7785
▁Flying	-11.7785
▁91	-11.7786
▁WOR	-11.7786
▁Metro	-11.7786
▁lamp	-11.7786
▁jock	-11.7786
▁Drew	-11.7786
▁Shaun	-11.7787
▁manipulation	-11.7787
▁Toback	-11.7787
dramatized	-11.7787
roaring	-11.7788
allery	-11.7788
▁toady	-11.7788
▁Today	-11.7788
▁plight	-11.7788
smith	-11.7788
▁Latino	-11.7789
▁Marx	-11.7789
▁Perry	-11.7789
▁Bamb	-11.7789
▁billion	-11.779
▁payoff	-11.779
▁armor	-11.779
▁weaknesses	-11.779
▁respective	-11.7791
Adventure	-11.7791
▁Yuen	-11.7791
▁invade	-11.7791
▁Twin	-11.7791
tolerance	-11.7792
▁unclear	-11.7792
▁dating	-11.7792
▁beast	-11.7792
▁Lame	-11.7793
▁Christianity	-11.7794
▁max	-11.7794
▁collector	-11.7795
▁epi	-11.7795
▁comparable	-11.7795
▁Wright	-11.7796
▁Hamp	-11.7796
▁NY	-11.7797
▁kit	-11.7799
▁Mayor	-11.78
▁demonic	-11.78
▁belt	-11.78
▁Silen	-11.78
▁sought	-11.7801
▁unlikeable	-11.7801
▁nav	-11.7802
▁chok	-11.7802
▁Annie	-11.7802
▁Diana	-11.7802
▁Hood	-11.7802
witz	-11.7803
ansas	-11.7803
▁Const	-11.7804
▁/>******	-11.7804
▁uniqueness	-11.7805
wedish	-11.7806
▁secondary	-11.7807
▁dragon	-11.7807
▁reign	-11.7807
▁veer	-11.7807
▁bang	-11.7807
▁bale	-11.7807
▁Union	-11.7807
▁Read	-11.7807
▁Uma	-11.7808
▁Dante	-11.7809
ACH	-11.7811
▁Log	-11.7811
▁march	-11.7811
▁Mick	-11.7812
indulgence	-11.7812
▁arouse	-11.7813
▁Rite	-11.7813
▁meander	-11.7813
▁flashes	-11.7814
▁Buck	-11.7818
▁Nope	-11.7819
▁Shah	-11.782
▁Toad	-11.782
runk	-11.782
▁MY	-11.7821
Terrible	-11.7822
▁Lang	-11.7823
▁flipp	-11.7823
▁cup	-11.7827
▁Alas	-11.7828
▁Hang	-11.7828
sensiti	-11.7829
▁dual	-11.7829
▁fuel	-11.7831
▁bubble	-11.7833
hold	-11.7836
▁Fire	-11.7837
▁Kai	-11.7844
▁cheerful	-11.7845
▁Samu	-11.7854
▁Kenn	-11.7858
▁burl	-11.7859
undan	-11.7859
▁lion	-11.7867
▁lend	-11.7869
▁Conte	-11.7876
slav	-11.7876
claustrophobic	-11.7883
▁Schuma	-11.7894
▁Maur	-11.7903
ovich	-11.7908
ibly	-11.7914
▁ranger	-11.7929
cause	-11.7937
foot	-11.7958
▁Conc	-11.7962
jack	-11.7963
▁peaceful	-11.7989
otte	-11.7991
▁restore	-11.7994
Dario	-11.8003
▁democra	-11.8016
▁Nag	-11.8017
▁masterful	-11.8023
riff	-11.8051
pinning	-11.806
roid	-11.807
▁additional	-11.8093
▁judg	-11.8097
ffer	-11.8101
LLER	-11.8111
▁Loi	-11.8118
▁cage	-11.8146
Newhart	-11.8158
▁obligat	-11.8162
haha	-11.8163
held	-11.8172
seventies	-11.8176
▁booz	-11.8176
HERE	-11.818
▁poke	-11.8196
▁resurrect	-11.8204
absurdity	-11.8227
▁stain	-11.8259
▁prim	-11.8259
empt	-11.8262
omen	-11.8276
▁battl	-11.8295
▁Dumb	-11.8295
▁Mob	-11.8301
▁Gang	-11.8323
Trust	-11.8334
Sword	-11.8353
▁servant	-11.8358
▁Chang	-11.8379
▁colla	-11.8392
▁banal	-11.8403
▁tolerat	-11.8403
Cheers	-11.841
wrenching	-11.8413
reaches	-11.8422
ffice	-11.8423
ogan	-11.8425
▁Jeanne	-11.844
▁Low	-11.8455
▁stepp	-11.8492
blin	-11.8507
DAY	-11.8538
literal	-11.8538
▁Kla	-11.8543
ALL	-11.8555
Stay	-11.8562
80	-11.857
hunting	-11.8603
▁coat	-11.8674
▁scru	-11.868
▁Ott	-11.8698
spirited	-11.8713
ifty	-11.8734
hail	-11.8778
▁Geni	-11.879
▁retrospect	-11.8857
▁advanc	-11.8857
capitalism	-11.8865
attlefield	-11.8932
cookie	-11.8967
cessa	-11.8969
galo	-11.8991
▁alienat	-11.9001
70	-11.9004
▁Jani	-11.9009
Madman	-11.9014
EX	-11.9014
duced	-11.9054
▁champion	-11.906
indulgen	-11.908
Cut	-11.9143
▁Gia	-11.9152
Rain	-11.9184
▁(193	-11.9218
waiting	-11.9255
▁Harv	-11.9258
▁bli	-11.9289
▁Audi	-11.9346
Thanks	-11.9355
▁Roma	-11.9405
omi	-11.9407
east	-11.9461
▁discou	-11.948
Grad	-11.949
HAS	-11.9504
Pirates	-11.9515
▁criticiz	-11.9524
Patt	-11.9551
▁pursui	-11.9585
glasses	-11.959
emented	-11.9596
▁industrial	-11.9651
▁trivial	-11.9654
ncidentally	-11.9701
curs	-11.9703
haired	-11.9757
▁smil	-11.9767
▁dupe	-11.9799
dead	-11.984
60	-11.9918
▁Lauren	-11.9921
▁proceed	-11.9973
cient	-11.9984
while	-11.9991
▁introduc	-11.9998
wink	-12.0013
fraid	-12.0062
umbling	-12.0062
▁Faith	-12.0116
q	-12.0131
gotten	-12.0156
▁releas	-12.0166
▁rewrit	-12.0182
imply	-12.0183
boat	-12.0184
ologist	-12.0193
▁Hmmm	-12.0193
▁poignan	-12.02
▁requi	-12.0205
deserved	-12.0206
inspired	-12.0207
establish	-12.0208
Judg	-12.0209
related	-12.0209
Except	-12.0209
Think	-12.0209
Neil	-12.021
Happy	-12.021
Master	-12.021
jerk	-12.021
Elizabeth	-12.021
Besides	-12.0211
Friday	-12.0211
Barbar	-12.0211
promising	-12.0211
Wild	-12.0211
Woody	-12.0211
front	-12.0211
Story	-12.0211
Apparently	-12.0211
Bud	-12.0211
producer	-12.0211
Poor	-12.0211
crack	-12.0211
pathetic	-12.0211
Little	-12.0212
explain	-12.0212
Time	-12.0212
revenge	-12.0212
successful	-12.0212
Julia	-12.0212
Angel	-12.0212
joke	-12.0212
David	-12.0212
French	-12.0212
Jean	-12.0212
water	-12.0212
surprise	-12.0212
documentary	-12.0212
forced	-12.0212
perfect	-12.0212
DVD	-12.0212
family	-12.0213
child	-12.0213
before	-12.0213
should	-12.0213
until	-12.0213
Out	-12.0213
drama	-12.0213
broken	-12.0213
Southern	-12.0213
romance	-12.0213
Candy	-12.0214
▁Villa	-12.0214
plus	-12.0214
felt	-12.0214
sembl	-12.0215
because	-12.0215
issue	-12.0217
text	-12.0217
claim	-12.0217
▁satisfy	-12.0217
nominat	-12.0217
Harry	-12.0218
Black	-12.0219
coast	-12.0219
whatever	-12.0219
▁(197	-12.022
▁compell	-12.0221
▁astonish	-12.0221
▁(198	-12.0222
▁exaggerat	-12.0223
wide	-12.0227
soap	-12.0227
▁challeng	-12.0232
Lane	-12.0234
▁immediate	-12.0234
sitive	-12.0237
▁episod	-12.0242
duction	-12.0243
value	-12.0244
47	-12.0246
▁jealous	-12.0248
▁opportunit	-12.0249
▁sensitiv	-12.025
▁soci	-12.0255
▁eeri	-12.0258
▁Latin	-12.0259
▁Hunt	-12.026
▁narrat	-12.0263
▁Mario	-12.0267
▁trait	-12.0268
▁sentiment	-12.0268
urvivor	-12.0271
uropean	-12.0272
evolution	-12.0272
▁sarcas	-12.0273
elevision	-12.0273
▁Cecil	-12.0273
▁govern	-12.0273
Studio	-12.0273
1.0	-12.0273
elcome	-12.0274
▁orphan	-12.0274
generat	-12.0275
~	-12.0275
▁Taxi	-12.0275
sychokinetically	-12.0275
▁Cussler	-12.0275
▁disembo	-12.0275
Argentine	-12.0275
percussion	-12.0275
▁Cooper	-12.0275
▁Depardieu	-12.0275
▁Grendel	-12.0275
▁Grodin	-12.0275
▁HIGH	-12.0275
▁MONEY	-12.0275
▁Skelton	-12.0275
▁Stallone	-12.0275
▁TOTAL	-12.0275
▁WRAITH	-12.0275
▁cobbled	-12.0275
▁neighbour	-12.0275
▁traumati	-12.0275
Airplane	-12.0275
Aishwarya	-12.0275
Bologna	-12.0275
Dinosaur	-12.0275
Dynamite	-12.0275
GHOSTHOUSE	-12.0275
Grizzly	-12.0275
HEAD	-12.0275
Horseshack	-12.0275
Liberation	-12.0275
Magnificent	-12.0275
Maizie	-12.0275
McGregor	-12.0275
NARNIA	-12.0275
PLOT	-12.0275
Schwimmer	-12.0275
Turbulence	-12.0275
Zambeck	-12.0275
chizophrenia	-12.0275
dysfunctional	-12.0275
grudge	-12.0275
illennium	-12.0275
imaginary	-12.0275
inconsistent	-12.0275
malcolm	-12.0275
neutral	-12.0275
ntelope	-12.0275
onderkommando	-12.0275
ongratulat	-12.0275
railroad	-12.0275
reprehensible	-12.0275
stensibly	-12.0275
¡	-12.0275
”	-12.0275
▁1936	-12.0275
▁1939	-12.0275
▁1969	-12.0275
▁1993	-12.0275
▁Andromeda	-12.0275
▁Angelopoulos	-12.0275
▁Annihilation	-12.0275
▁Antonelli	-12.0275
▁Argentina	-12.0275
▁BLANDINGS	-12.0275
▁Bergman	-12.0275
▁Blond	-12.0275
▁Bochner	-12.0275
▁Bogomil	-12.0275
▁Bromberg	-12.0275
▁Budapest	-12.0275
▁Bulworth	-12.0275
▁Bunuel	-12.0275
▁COUL	-12.0275
▁Carradine	-12.0275
▁Chicken	-12.0275
▁Classic	-12.0275
▁Columbus	-12.0275
▁Corbet	-12.0275
▁DANGER	-12.0275
▁DARK	-12.0275
▁DiCaprio	-12.0275
▁Diamond	-12.0275
▁Dundee	-12.0275
▁Eastwick	-12.0275
▁Edinburgh	-12.0275
▁Fawcett	-12.0275
▁GREAT	-12.0275
▁Galactica	-12.0275
▁Giamatti	-12.0275
▁Gloria	-12.0275
▁Godfrey	-12.0275
▁Godzilla	-12.0275
▁Heatseeker	-12.0275
▁Horrible	-12.0275
▁Hungary	-12.0275
▁Hutton	-12.0275
▁Interesting	-12.0275
▁Iosseliani	-12.0275
▁Ironically	-12.0275
▁Jenkins	-12.0275
▁Jeopardy	-12.0275
▁KILLER	-12.0275
▁Kagome	-12.0275
▁Lelouch	-12.0275
▁Lenzi	-12.0275
▁Magazine	-12.0275
▁Malabar	-12.0275
▁McCarthy	-12.0275
▁Mimzy	-12.0275
▁Miyazaki	-12.0275
▁Netflix	-12.0275
▁Nielsen	-12.0275
▁Orleans	-12.0275
▁Parrish	-12.0275
▁Perfect	-12.0275
▁Pizza	-12.0275
▁Placid	-12.0275
▁Poirot	-12.0275
▁Rambo	-12.0275
▁Remembrance	-12.0275
▁Ricarno	-12.0275
▁Salvador	-12.0275
▁Selphie	-12.0275
▁Shizuru	-12.0275
▁Sinclair	-12.0275
▁Starkadders	-12.0275
▁Strangelove	-12.0275
▁Sylvia	-12.0275
▁Trailer	-12.0275
▁Tweety	-12.0275
▁Unnecessary	-12.0275
▁Virgin	-12.0275
▁Vladimir	-12.0275
▁WHAT	-12.0275
▁Yankees	-12.0275
▁Zanzi	-12.0275
▁ambiguity	-12.0275
▁ambulance	-12.0275
▁attorney	-12.0275
▁backpack	-12.0275
▁biological	-12.0275
▁bonkers	-12.0275
▁brunette	-12.0275
▁cemetery	-12.0275
▁censorship	-12.0275
▁centuries	-12.0275
▁chemical	-12.0275
▁choreography	-12.0275
▁cohesive	-12.0275
▁coincidence	-12.0275
▁commendable	-12.0275
▁confirm	-12.0275
▁conniving	-12.0275
▁connoisseur	-12.0275
▁contrary	-12.0275
▁corporation	-12.0275
▁crippl	-12.0275
▁criteria	-12.0275
▁cryogenics	-12.0275
▁culprit	-12.0275
▁custody	-12.0275
▁deceptive	-12.0275
▁deja	-12.0275
▁demeanor	-12.0275
▁demonstration	-12.0275
▁depriv	-12.0275
▁descent	-12.0275
▁determination	-12.0275
▁detract	-12.0275
▁diatribe	-12.0275
▁dictionary	-12.0275
▁disapprov	-12.0275
▁documentaries	-12.0275
▁economic	-12.0275
▁eject	-12.0275
▁embark	-12.0275
▁ethnic	-12.0275
▁evocative	-12.0275
▁exhibit	-12.0275
▁expedition	-12.0275
▁explosive	-12.0275
▁frenetic	-12.0275
▁horrifying	-12.0275
▁hypocrisy	-12.0275
▁illustrat	-12.0275
▁imprint	-12.0275
▁insomnia	-12.0275
▁instalment	-12.0275
▁integral	-12.0275
▁janitor	-12.0275
▁jeep	-12.0275
▁landmark	-12.0275
▁lurking	-12.0275
▁maximum	-12.0275
▁merciless	-12.0275
▁misanthrop	-12.0275
▁misogynist	-12.0275
▁multitud	-12.0275
▁naughty	-12.0275
▁notwithstanding	-12.0275
▁oblivio	-12.0275
▁opportunist	-12.0275
▁oppression	-12.0275
▁paradise	-12.0275
▁perpetual	-12.0275
▁phobia	-12.0275
▁pillow	-12.0275
▁pompous	-12.0275
▁pornography	-12.0275
▁possession	-12.0275
▁pregnancy	-12.0275
▁premature	-12.0275
▁procedure	-12.0275
▁producing	-12.0275
▁psychedelic	-12.0275
▁quips	-12.0275
▁rambling	-12.0275
▁reappear	-12.0275
▁rebuild	-12.0275
▁reconstruction	-12.0275
▁replies	-12.0275
▁retrieve	-12.0275
▁revolting	-12.0275
▁rhythm	-12.0275
▁roulette	-12.0275
▁satisfactory	-12.0275
▁scheming	-12.0275
▁shield	-12.0275
▁solitary	-12.0275
▁soooooo	-12.0275
▁sophomoric	-12.0275
▁sprinkl	-12.0275
▁subliminal	-12.0275
▁surrender	-12.0275
▁thirteen	-12.0275
▁tragedies	-12.0275
▁travesty	-12.0275
▁unimaginative	-12.0275
▁uninspiring	-12.0275
▁unnatural	-12.0275
▁unrelenting	-12.0275
▁unspoken	-12.0275
▁verdict	-12.0275
▁volunteer	-12.0275
▁voyage	-12.0275
Aladdin	-12.0275
Certain	-12.0275
WARNING	-12.0275
espionage	-12.0275
▁Beatty	-12.0275
▁Bennett	-12.0275
▁Dawson	-12.0275
▁Future	-12.0275
▁Producer	-12.0275
▁SPACE	-12.0275
▁Samarra	-12.0275
▁Turkish	-12.0275
▁UFO	-12.0275
▁Virgil	-12.0275
▁Whoopi	-12.0275
▁XVI	-12.0275
▁activity	-12.0275
▁apprentice	-12.0275
▁bastard	-12.0275
▁comrade	-12.0275
▁despair	-12.0275
▁dispatched	-12.0275
▁examine	-12.0275
▁implies	-12.0275
▁increase	-12.0275
▁intimidat	-12.0275
▁knees	-12.0275
▁masquerad	-12.0275
▁nazi	-12.0275
▁pitiful	-12.0275
▁proclaimed	-12.0275
▁prodig	-12.0275
▁replica	-12.0275
▁sandwich	-12.0275
▁scholar	-12.0275
▁silence	-12.0275
▁stroke	-12.0275
▁swimming	-12.0275
▁taxes	-12.0275
▁thief	-12.0275
▁translation	-12.0275
▁treachery	-12.0275
▁venue	-12.0275
Holloway	-12.0275
affirm	-12.0275
▁'90	-12.0275
▁Dixie	-12.0275
▁Fraser	-12.0275
▁Funari	-12.0275
▁Gulag	-12.0275
▁Marilyn	-12.0275
▁Monroe	-12.0275
▁NBC	-12.0275
▁Raimi	-12.0275
▁Severance	-12.0275
▁Stanley	-12.0275
▁Swank	-12.0275
▁Swiss	-12.0275
▁chorus	-12.0275
▁crystal	-12.0275
▁elicit	-12.0275
▁enigma	-12.0275
▁hurling	-12.0275
▁playwright	-12.0275
▁ransom	-12.0275
▁resonance	-12.0275
▁shrink	-12.0275
▁smack	-12.0275
▁surgery	-12.0275
▁telekine	-12.0275
▁unsuccessfully	-12.0275
▁Lemmon	-12.0275
▁Screen	-12.0275
deceased	-12.0275
mnesia	-12.0275
ä	-12.0275
▁Columbia	-12.0275
▁Lupus	-12.0275
▁Strong	-12.0275
▁palace	-12.0275
▁snappy	-12.0275
▁stagger	-12.0275
MEGA	-12.0275
dilemma	-12.0275
kooky	-12.0275
▁Belial	-12.0275
▁Caesar	-12.0275
▁Ferrera	-12.0275
▁Lambert	-12.0275
▁Menace	-12.0275
▁Runner	-12.0275
▁Trans	-12.0275
▁albums	-12.0275
▁conform	-12.0275
▁dawn	-12.0275
▁demise	-12.0275
▁ounce	-12.0275
▁regain	-12.0275
▁smear	-12.0275
▁sparse	-12.0275
▁squirm	-12.0275
▁swallow	-12.0275
▁Kenyon	-12.0275
▁Middle	-12.0275
▁Rooker	-12.0275
▁clerk	-12.0275
▁diminish	-12.0275
▁rarity	-12.0275
▁summarize	-12.0275
nthropolog	-12.0275
▁Banning	-12.0275
▁Goddard	-12.0275
▁Rowlands	-12.0275
▁TCM	-12.0275
▁Stack	-12.0275
▁poetic	-12.0275
▁reunion	-12.0275
yrann	-12.0275
▁LDS	-12.0275
▁galore	-12.0275
▁uncompromis	-12.0275
▁Chill	-12.0275
RIP	-12.0275
▁Democrat	-12.0275
▁Mighty	-12.0275
▁WHI	-12.0275
Godfather	-12.0275
▁Crime	-12.0275
▁Dawn	-12.0275
▁Ironside	-12.0275
▁Keller	-12.0275
▁Sutton	-12.0275
▁ravag	-12.0275
▁Parents	-12.0275
▁brush	-12.0275
▁commentator	-12.0275
▁intervals	-12.0275
▁Witness	-12.0275
▁populate	-12.0275
wolves	-12.0275
▁HIM	-12.0275
▁Ladies	-12.0275
▁fasci	-12.0275
▁Mattei	-12.0275
▁Scro	-12.0275
Explo	-12.0275
garth	-12.0275
▁cocky	-12.0275
▁ABC	-12.0275
▁Fleming	-12.0275
▁aftermath	-12.0275
▁Falk	-12.0275
▁Reilly	-12.0275
▁Stander	-12.0275
▁spear	-12.0275
▁Hessling	-12.0275
▁Carvey	-12.0275
▁deaf	-12.0275
▁embed	-12.0275
▁impulse	-12.0275
▁remorse	-12.0275
▁sorrow	-12.0275
VIA	-12.0275
▁McQueen	-12.0275
▁Pyun	-12.0275
▁dispens	-12.0275
mmoral	-12.0275
▁Room	-12.0275
▁Waterfront	-12.0275
▁implicat	-12.0275
▁aspire	-12.0275
▁Wyman	-12.0275
▁plodding	-12.0275
▁clunk	-12.0275
▁Diesel	-12.0275
▁subdue	-12.0275
▁uncontrollabl	-12.0275
▁McGoohan	-12.0275
▁keel	-12.0275
▁blade	-12.0275
▁Tweed	-12.0275
▁Altman	-12.0275
▁Hotel	-12.0275
▁Mantee	-12.0275
▁Revere	-12.0275
▁spree	-12.0275
▁Scoo	-12.0275
▁shortcomings	-12.0275
▁Freaks	-12.0275
▁Mild	-12.0275
▁annual	-12.0276
eakable	-12.0276
▁groundbreaking	-12.0276
▁HellBoy	-12.0276
▁Pedro	-12.0276
▁architecture	-12.0276
hawk	-12.0276
▁narc	-12.0276
▁tiring	-12.0276
▁Sunset	-12.0276
▁dyna	-12.0276
▁Yeoh	-12.0276
▁programming	-12.0276
▁teleplay	-12.0276
▁tangl	-12.0276
▁plug	-12.0276
▁dopey	-12.0276
▁loyalties	-12.0276
▁Chinatown	-12.0276
▁Brenda	-12.0276
▁meteor	-12.0276
Epoch	-12.0276
▁glamour	-12.0276
▁bury	-12.0276
▁Isabel	-12.0276
▁pedestrian	-12.0276
▁gangsta	-12.0276
▁Jews	-12.0276
▁beware	-12.0276
▁soaked	-12.0276
▁Pacino	-12.0276
▁Winston	-12.0276
▁Harlow	-12.0276
▁snobby	-12.0276
▁chore	-12.0276
▁Hammer	-12.0276
▁McDonald	-12.0276
▁Sports	-12.0276
conceive	-12.0276
▁Normally	-12.0276
▁earthquake	-12.0276
▁admirably	-12.0276
▁Nonetheless	-12.0276
▁isolation	-12.0276
fathom	-12.0276
▁allusion	-12.0276
imitate	-12.0277
▁awry	-12.0277
▁fluff	-12.0277
▁disorder	-12.0277
▁Fukasaku	-12.0277
▁volume	-12.0277
▁Tiny	-12.0277
▁widescreen	-12.0277
▁Audiard	-12.0277
▁Downey	-12.0277
▁prospect	-12.0277
▁Riverside	-12.0277
▁birthday	-12.0277
▁Cliff	-12.0277
▁Juhi	-12.0277
▁Cecilia	-12.0277
TRO	-12.0277
▁promotion	-12.0277
▁Studios	-12.0277
▁polite	-12.0277
▁sarcastic	-12.0277
▁Luckily	-12.0277
▁$20	-12.0277
▁Dolph	-12.0277
▁noteworthy	-12.0277
▁rapport	-12.0277
▁bourgeoisie	-12.0277
▁Charley	-12.0277
▁nonexistent	-12.0277
▁unpretentious	-12.0277
▁Passage	-12.0277
▁groom	-12.0277
▁keen	-12.0277
▁popstar	-12.0277
▁gentlemen	-12.0278
▁midget	-12.0278
▁veil	-12.0278
▁psychiatrist	-12.0278
▁shoes	-12.0278
▁Monday	-12.0278
▁frenz	-12.0278
▁mytho	-12.0278
▁SciFi	-12.0278
▁species	-12.0278
▁EAS	-12.0278
▁delay	-12.0278
vasion	-12.0278
▁1941	-12.0278
cuz	-12.0278
Weapon	-12.0278
▁Spike	-12.0278
▁punishment	-12.0278
▁jolly	-12.0278
▁wimp	-12.0278
▁Ritz	-12.0278
▁Championship	-12.0278
▁Stella	-12.0278
▁Carrey	-12.0278
▁transfer	-12.0278
▁Tune	-12.0279
▁slept	-12.0279
dominant	-12.0279
▁concentrati	-12.0279
▁slightest	-12.0279
▁exaggeration	-12.0279
▁Morrow	-12.0279
▁Rubin	-12.0279
▁Astin	-12.0279
▁1959	-12.0279
▁annoyance	-12.0279
▁outcasts	-12.0279
▁reek	-12.0279
▁Kingdom	-12.0279
▁caption	-12.0279
▁airport	-12.0279
▁commitment	-12.0279
▁establishment	-12.0279
▁interplay	-12.0279
Doroth	-12.028
Junk	-12.028
▁grass	-12.028
▁distraction	-12.028
▁spike	-12.028
▁Self	-12.028
▁duties	-12.028
▁panning	-12.028
▁Cause	-12.028
▁Foley	-12.028
▁encore	-12.028
▁arrangement	-12.028
▁degrad	-12.028
▁50%	-12.028
▁Rowling	-12.0281
▁Nige	-12.0281
▁harmless	-12.0281
▁mimic	-12.0281
▁decei	-12.0281
▁schoolgirl	-12.0281
ginally	-12.0281
▁gray	-12.0281
Tiger	-12.0281
elding	-12.0281
▁Denis	-12.0281
▁divide	-12.0281
▁runaway	-12.0281
▁collaboration	-12.0282
▁rapper	-12.0282
▁breakdown	-12.0282
dgy	-12.0282
▁equat	-12.0282
▁slavery	-12.0282
▁herrings	-12.0282
▁skeptic	-12.0282
duka	-12.0283
Peaches	-12.0283
▁poking	-12.0283
▁pander	-12.0283
▁Fifi	-12.0284
▁tempted	-12.0284
▁decapitat	-12.0284
▁missionary	-12.0284
▁Holly	-12.0284
▁antholog	-12.0284
▁Morley	-12.0284
▁Raven	-12.0284
▁click	-12.0284
rrogate	-12.0284
ogram	-12.0284
▁lousi	-12.0284
▁Luther	-12.0285
▁underlying	-12.0285
▁bog	-12.0285
▁destination	-12.0285
taire	-12.0286
▁Jaff	-12.0286
▁litter	-12.0286
▁lodg	-12.0286
▁3000	-12.0287
RIS	-12.0288
▁texture	-12.0288
▁salva	-12.0288
amorous	-12.0288
▁Cash	-12.0289
▁Kung	-12.0289
▁grap	-12.0291
xactly	-12.0292
▁Zoo	-12.0293
▁Raise	-12.0295
tempered	-12.0296
▁ilk	-12.0299
worm	-12.0301
potent	-12.0301
▁OUT	-12.0302
▁stumbl	-12.0303
▁crop	-12.0303
▁Marsha	-12.0303
▁fade	-12.0303
knit	-12.0305
LIE	-12.0306
crawl	-12.0306
hrill	-12.0307
▁aveng	-12.0307
hriek	-12.0309
infused	-12.031
illionaire	-12.0311
▁shelve	-12.0312
manda	-12.0314
Media	-12.0314
skinned	-12.0314
turb	-12.0315
▁Santa	-12.0322
▁Chia	-12.0325
requited	-12.0329
▁grease	-12.033
1979	-12.0331
▁fanci	-12.0333
▁Village	-12.0337
ictoria	-12.0339
▁tortu	-12.0339
Genesis	-12.034
▁Thai	-12.0342
▁conspir	-12.0358
Aaron	-12.036
▁calm	-12.036
▁constitute	-12.0361
characterisation	-12.0386
▁peak	-12.0388
▁Trac	-12.039
▁1987	-12.0395
oreign	-12.0399
▁crumbl	-12.04
▁Verdi	-12.04
▁collage	-12.0404
▁Opera	-12.0409
Jules	-12.0432
▁deduc	-12.0451
umming	-12.0452
ilda	-12.0453
dvocate	-12.0467
▁mono	-12.0468
▁Bert	-12.047
▁crumm	-12.048
▁Mathi	-12.048
▁unhea	-12.0489
▁quarter	-12.0549
1946	-12.0557
▁downward	-12.0568
▁invo	-12.0586
Napoleon	-12.0589
****************	-12.0594
ension	-12.0614
enthusiastic	-12.0623
▁spec	-12.0625
judgment	-12.0631
▁mummi	-12.0644
arried	-12.0664
Comedy	-12.0746
▁tendenc	-12.0747
▁clan	-12.0753
Cannon	-12.079
▁Qua	-12.0793
▁reproduce	-12.0813
igious	-12.0828
Sophi	-12.0852
Throw	-12.0875
biography	-12.0905
Crash	-12.0908
▁liqu	-12.0912
OWER	-12.0942
Spring	-12.0949
▁maca	-12.0953
deep	-12.0977
ussie	-12.1011
abba	-12.1112
▁incorporat	-12.1118
dealer	-12.1158
fashioned	-12.1159
▁bibl	-12.1162
▁compensat	-12.1205
duh	-12.1222
reference	-12.1284
111	-12.1304
OFF	-12.1393
diva	-12.1414
1935	-12.1456
▁Mysterio	-12.1483
▁refus	-12.1541
sistance	-12.1573
▁indulge	-12.1578
▁Kerr	-12.1626
▁whine	-12.1658
gregation	-12.171
animator	-12.1726
▁Nann	-12.1761
reuni	-12.1796
▁capitalis	-12.1915
▁solv	-12.2031
▁indicat	-12.2249
▁prais	-12.2282
Effects	-12.2314
insert	-12.2324
Unde	-12.2395
▁Nati	-12.24
2001	-12.2413
▁embrac	-12.2426
Scarlett	-12.2537
▁banalit	-12.2578
liant	-12.2626
ecki	-12.2661
Walk	-12.2721
LOW	-12.2749
▁purpo	-12.2757
▁oblig	-12.2953
stig	-12.2963
Mission	-12.2965
Draw	-12.3076
cratic	-12.3191
▁axe	-12.3271
lik	-12.3331
▁scandal	-12.3337
talking	-12.3362
▁accu	-12.3393
▁receiv	-12.3412
sburg	-12.3412
izard	-12.3463
ffle	-12.3464
mbrellas	-12.3495
▁replac	-12.3502
▁relat	-12.3507
Charl	-12.3528
America	-12.3529
▁patien	-12.3534
PORT	-12.3539
Escape	-12.3541
Topper	-12.3541
stairs	-12.3541
Full	-12.3541
Banderas	-12.3541
Davies	-12.3541
Matthew	-12.3541
sophisticated	-12.3541
Batman	-12.3542
critic	-12.3542
Among	-12.3542
Viggo	-12.3542
Highly	-12.3542
Brig	-12.3542
Children	-12.3543
Strip	-12.3543
Patrick	-12.3543
washed	-12.3543
Russia	-12.3543
Almost	-12.3543
Production	-12.3543
selfish	-12.3543
Road	-12.3543
3/10	-12.3543
Gregory	-12.3543
Indians	-12.3543
Titanic	-12.3544
Baby	-12.3544
described	-12.3544
Deep	-12.3544
liberal	-12.3544
Susan	-12.3544
Music	-12.3544
Yeah	-12.3544
Would	-12.3544
Russell	-12.3544
Keane	-12.3544
Connor	-12.3544
patient	-12.3544
Costello	-12.3544
ultimate	-12.3545
Jenni	-12.3545
terrorist	-12.3545
Crawford	-12.3545
Edward	-12.3545
Julie	-12.3545
numbers	-12.3545
Big	-12.3545
Blue	-12.3545
unfortunately	-12.3545
Christian	-12.3545
horse	-12.3545
Italian	-12.3545
intelligent	-12.3545
double	-12.3545
Laura	-12.3545
professional	-12.3545
Grant	-12.3545
exciting	-12.3545
Death	-12.3545
market	-12.3545
London	-12.3545
clean	-12.3545
normal	-12.3545
climax	-12.3545
bomb	-12.3545
emotional	-12.3545
villain	-12.3545
Plus	-12.3546
apparently	-12.3546
ghost	-12.3546
World	-12.3546
Instead	-12.3546
crime	-12.3546
personal	-12.3546
message	-12.3546
mystery	-12.3546
female	-12.3546
social	-12.3546
Dead	-12.3546
violence	-12.3546
directed	-12.3546
extreme	-12.3546
teacher	-12.3546
instead	-12.3546
interest	-12.3546
secret	-12.3546
remember	-12.3546
believe	-12.3546
everything	-12.3546
different	-12.3546
Martin	-12.3546
straight	-12.3546
everyone	-12.3546
voice	-12.3546
characters	-12.3546
living	-12.3546
could	-12.3546
Fast	-12.3547
death	-12.3547
guy	-12.3548
help	-12.3548
▁overwhelm	-12.355
drug	-12.3551
rolling	-12.3552
▁Stree	-12.3559
base	-12.3562
▁happi	-12.3563
Ultimate	-12.3564
animate	-12.3564
▁execute	-12.3572
shirt	-12.3574
▁profession	-12.3577
▁sympathi	-12.3582
▁grain	-12.3582
▁technolog	-12.3583
▁crud	-12.3583
▁matur	-12.3583
▁Australia	-12.3591
▁middl	-12.3596
concert	-12.3597
▁collaborat	-12.3599
music	-12.3599
nstruct	-12.36
▁phenomen	-12.3601
ntelligence	-12.3602
▁misunderst	-12.3602
▁horrifi	-12.3603
▁apprecia	-12.3603
▁smokin	-12.3603
▁necess	-12.3603
ountain	-12.3604
▁remark	-12.3604
pectacular	-12.3604
enzie	-12.3605
▁avail	-12.3606
lockbuster	-12.3606
olocaust	-12.3606
echnically	-12.3606
etween	-12.3606
resumably	-12.3606
▁plum	-12.3607
rocodile	-12.3607
amiliar	-12.3607
clusion	-12.3607
(195	-12.3607
▁Alba	-12.3607
▁architect	-12.3608
arthquake	-12.3608
▁circumstan	-12.3608
▁nekkid	-12.3608
▁BORING	-12.3608
▁Patriot	-12.3608
▁Rampling	-12.3608
▁curtain	-12.3608
▁distaste	-12.3608
▁embellish	-12.3608
▁folklor	-12.3608
▁telepath	-12.3608
0,000.00	-12.3608
Armageddon	-12.3608
Artagnan	-12.3608
Brief	-12.3608
Copacabana	-12.3608
DDEN	-12.3608
Essentially	-12.3608
Feuillade	-12.3608
Gigli	-12.3608
Hendrix	-12.3608
INCREDIBL	-12.3608
Metropoli	-12.3608
NIGHT	-12.3608
Performance	-12.3608
Shortly	-12.3608
Solaris	-12.3608
Summary	-12.3608
Supernatural	-12.3608
Whisper	-12.3608
buxom	-12.3608
denberry	-12.3608
evaluate	-12.3608
hhhhh	-12.3608
imagining	-12.3608
recinct	-12.3608
rohibition	-12.3608
specifi	-12.3608
unavailable	-12.3608
utomobiles	-12.3608
vaudeville	-12.3608
ymphony	-12.3608
▁/>1/10	-12.3608
▁/>2/10	-12.3608
▁1873	-12.3608
▁1934	-12.3608
▁1973	-12.3608
▁1974	-12.3608
▁1982	-12.3608
▁1984	-12.3608
▁1985	-12.3608
▁6/10	-12.3608
▁AIDS	-12.3608
▁Ackroyd	-12.3608
▁Afghanistan	-12.3608
▁Autobots	-12.3608
▁BOYS	-12.3608
▁Belafonte	-12.3608
▁Beowulf	-12.3608
▁Bianchi	-12.3608
▁Biehn	-12.3608
▁Blackadder	-12.3608
▁Blanks	-12.3608
▁Breathnach	-12.3608
▁Brewster	-12.3608
▁Bubbles	-12.3608
▁Burundi	-12.3608
▁COSTS	-12.3608
▁Cambridge	-12.3608
▁Cardassian	-12.3608
▁Caribbean	-12.3608
▁Chamberlain	-12.3608
▁Cherbourg	-12.3608
▁Cinématographe	-12.3608
▁Colombia	-12.3608
▁Comfort	-12.3608
▁Conchita	-12.3608
▁Confidential	-12.3608
▁Congress	-12.3608
▁Consequently	-12.3608
▁Cosmatos	-12.3608
▁Cousteau	-12.3608
▁Crypt	-12.3608
▁Cypher	-12.3608
▁Davenport	-12.3608
▁Decepticon	-12.3608
▁EIGHTS	-12.3608
▁EXCELLENT	-12.3608
▁Eisenberg	-12.3608
▁Elektra	-12.3608
▁Entertain	-12.3608
▁Entourage	-12.3608
▁Episode	-12.3608
▁Facinelli	-12.3608
▁Fantastic	-12.3608
▁Feldman	-12.3608
▁Fitzgerald	-12.3608
▁Fruit	-12.3608
▁GURU	-12.3608
▁Gladiator	-12.3608
▁Gleason	-12.3608
▁Gorilla	-12.3608
▁Guinevere	-12.3608
▁HELLO	-12.3608
▁Harrelson	-12.3608
▁Hathaway	-12.3608
▁Henenlotter	-12.3608
▁Hiroshi	-12.3608
▁Hussey	-12.3608
▁IMDB	-12.3608
▁Jodorowsky	-12.3608
▁Joplin	-12.3608
▁Kashmir	-12.3608
▁Kyoko	-12.3608
▁LEFT	-12.3608
▁Lindfors	-12.3608
▁MOONBIRD	-12.3608
▁Manhunt	-12.3608
▁Mankiewicz	-12.3608
▁Mantooth	-12.3608
▁Marjo	-12.3608
▁McDonnell	-12.3608
▁McDonough	-12.3608
▁McDormand	-12.3608
▁McDowall	-12.3608
▁Michigan	-12.3608
▁Mileaway	-12.3608
▁Miranda	-12.3608
▁Mississippi	-12.3608
▁Montgomery	-12.3608
▁Moscow	-12.3608
▁Musketeer	-12.3608
▁NEXT	-12.3608
▁Nielson	-12.3608
▁PRESENT	-12.3608
▁Pentagon	-12.3608
▁Pidgeon	-12.3608
▁Practical	-12.3608
▁Prochnow	-12.3608
▁Pumpernickel	-12.3608
▁Puppet	-12.3608
▁Quistis	-12.3608
▁Redgrave	-12.3608
▁Reginald	-12.3608
▁Remarkabl	-12.3608
▁Riddick	-12.3608
▁Rodriguez	-12.3608
▁Roxanne	-12.3608
▁Rutherford	-12.3608
▁STORY	-12.3608
▁Sahara	-12.3608
▁Sanchez	-12.3608
▁Satyricon	-12.3608
▁Savannah	-12.3608
▁Scarecrow	-12.3608
▁Schneider	-12.3608
▁Serenade	-12.3608
▁Sesshomaru	-12.3608
▁Sharpie	-12.3608
▁Shrooms	-12.3608
▁Siddharth	-12.3608
▁Silverstone	-12.3608
▁Solondz	-12.3608
▁Square	-12.3608
▁Stahl	-12.3608
▁Steiger	-12.3608
▁Steinbeck	-12.3608
▁Sutherland	-12.3608
▁TERRIBLE	-12.3608
▁Tamblyn	-12.3608
▁Trilogy	-12.3608
▁Trouble	-12.3608
▁Typical	-12.3608
▁Vaseline	-12.3608
▁Vaughn	-12.3608
▁Violence	-12.3608
▁WORTH	-12.3608
▁Wyckoff	-12.3608
▁Wynorski	-12.3608
▁Zoetrope	-12.3608
▁academi	-12.3608
▁allergic	-12.3608
▁altitude	-12.3608
▁anecdote	-12.3608
▁artifact	-12.3608
▁bimbo	-12.3608
▁breakfast	-12.3608
▁bureaucrat	-12.3608
▁catastrophe	-12.3608
▁cleavage	-12.3608
▁cocktail	-12.3608
▁collision	-12.3608
▁component	-12.3608
▁concrete	-12.3608
▁condensed	-12.3608
▁condescend	-12.3608
▁council	-12.3608
▁crucifix	-12.3608
▁crusade	-12.3608
▁cryptozoologist	-12.3608
▁daunting	-12.3608
▁decoration	-12.3608
▁descriptive	-12.3608
▁disadvantage	-12.3608
▁disgrace	-12.3608
▁disillusioned	-12.3608
▁disintegrat	-12.3608
▁dissolut	-12.3608
▁district	-12.3608
▁doctrine	-12.3608
▁enterprise	-12.3608
▁escalate	-12.3608
▁estimation	-12.3608
▁foreground	-12.3608
▁foremost	-12.3608
▁forgivable	-12.3608
▁gadget	-12.3608
▁garbled	-12.3608
▁geography	-12.3608
▁gestures	-12.3608
▁glitz	-12.3608
▁glutton	-12.3608
▁graduate	-12.3608
▁grizzl	-12.3608
▁guerrilla	-12.3608
▁guffaw	-12.3608
▁guillotine	-12.3608
▁hallmark	-12.3608
▁henchmen	-12.3608
▁hijinks	-12.3608
▁histrionic	-12.3608
▁hobbit	-12.3608
▁hysterics	-12.3608
▁immigration	-12.3608
▁incarnation	-12.3608
▁incestuous	-12.3608
▁infiltrat	-12.3608
▁influ	-12.3608
▁infrastructure	-12.3608
▁initiation	-12.3608
▁injuries	-12.3608
▁innovate	-12.3608
▁institution	-12.3608
▁intertwine	-12.3608
▁jib	-12.3608
▁juxtapos	-12.3608
▁knives	-12.3608
▁leukemia	-12.3608
▁liaison	-12.3608
▁lieutenant	-12.3608
▁locust	-12.3608
▁machinations	-12.3608
▁mechanical	-12.3608
▁milestone	-12.3608
▁monstrosity	-12.3608
▁monstrous	-12.3608
▁nephew	-12.3608
▁obstacle	-12.3608
▁occult	-12.3608
▁offspring	-12.3608
▁omitted	-12.3608
▁overbearing	-12.3608
▁parodies	-12.3608
▁patronizing	-12.3608
▁philosopher	-12.3608
▁philosophies	-12.3608
▁pilgrim	-12.3608
▁poisoning	-12.3608
▁pornographic	-12.3608
▁prophecy	-12.3608
▁quadriplegi	-12.3608
▁rebellion	-12.3608
▁recognise	-12.3608
▁rehearsal	-12.3608
▁reincarnation	-12.3608
▁repugnant	-12.3608
▁reservations	-12.3608
▁reshoot	-12.3608
▁retirement	-12.3608
▁satellite	-12.3608
▁seductive	-12.3608
▁shabby	-12.3608
▁shrimp	-12.3608
▁simplicity	-12.3608
▁skeleton	-12.3608
▁skilful	-12.3608
▁sorcerer	-12.3608
▁spontaneous	-12.3608
▁studies	-12.3608
▁superlative	-12.3608
▁symptom	-12.3608
▁telephone	-12.3608
▁tobacco	-12.3608
▁trespass	-12.3608
▁twelve	-12.3608
▁twentie	-12.3608
▁unanimous	-12.3608
▁unattractive	-12.3608
▁unlikable	-12.3608
▁uplift	-12.3608
▁vagrant	-12.3608
▁vegetables	-12.3608
▁vigilante	-12.3608
▁yesterday	-12.3608
▁yuppie	-12.3608
phobic	-12.3608
renegade	-12.3608
▁1933	-12.3608
▁1971	-12.3608
▁Collection	-12.3608
▁Dietrich	-12.3608
▁Dominion	-12.3608
▁EVERYTHING	-12.3608
▁Fleischer	-12.3608
▁Lopez	-12.3608
▁Tautou	-12.3608
▁Traveler	-12.3608
▁Yuzna	-12.3608
▁bankrupt	-12.3608
▁deteriorat	-12.3608
▁detriment	-12.3608
▁dribbl	-12.3608
▁engender	-12.3608
▁erratic	-12.3608
▁evaporate	-12.3608
▁fingerprint	-12.3608
▁intimacy	-12.3608
▁kinetic	-12.3608
▁negotiat	-12.3608
▁outnumber	-12.3608
▁perpetrat	-12.3608
▁ridicule	-12.3608
▁storyteller	-12.3608
▁succumb	-12.3608
▁unimpressive	-12.3608
FOCUS	-12.3608
Hellraiser	-12.3608
Jezebel	-12.3608
Juvenile	-12.3608
Sagnier	-12.3608
Suspicio	-12.3608
▁Agnes	-12.3608
▁Asimov	-12.3608
▁Barmak	-12.3608
▁Crazy	-12.3608
▁Domingo	-12.3608
▁Dourif	-12.3608
▁EVENT	-12.3608
▁Furlong	-12.3608
▁Happen	-12.3608
▁Literally	-12.3608
▁Mannetta	-12.3608
▁Moranis	-12.3608
▁Mortmain	-12.3608
▁POSS	-12.3608
▁Peanuts	-12.3608
▁SAVE	-12.3608
▁Screw	-12.3608
▁Skarsg	-12.3608
▁Woodbine	-12.3608
▁aggressive	-12.3608
▁astronom	-12.3608
▁bikini	-12.3608
▁blunder	-12.3608
▁bruise	-12.3608
▁cloister	-12.3608
▁companies	-12.3608
▁disfigur	-12.3608
▁dumbfound	-12.3608
▁exterminat	-12.3608
▁fairytale	-12.3608
▁faux	-12.3608
▁hapless	-12.3608
▁hypnotist	-12.3608
▁implement	-12.3608
▁introvert	-12.3608
▁invitation	-12.3608
▁manufactured	-12.3608
▁medication	-12.3608
▁omni	-12.3608
▁overshadow	-12.3608
▁rumors	-12.3608
▁stirring	-12.3608
▁taunt	-12.3608
▁underestimat	-12.3608
▁upstanding	-12.3608
▁vocal	-12.3608
▁vomit	-12.3608
AINT	-12.3608
onsultant	-12.3608
▁Apollo	-12.3608
▁Cheadle	-12.3608
▁Einstein	-12.3608
▁Furious	-12.3608
▁Group	-12.3608
▁LOL	-12.3608
▁Mossad	-12.3608
▁Patrol	-12.3608
▁Pearl	-12.3608
▁RKO	-12.3608
▁Reunion	-12.3608
▁SEAL	-12.3608
▁Satur	-12.3608
▁amazement	-12.3608
▁bootleg	-12.3608
▁cliffhangers	-12.3608
▁earnest	-12.3608
▁garage	-12.3608
▁glory	-12.3608
▁maddening	-12.3608
▁pearl	-12.3608
▁reconcil	-12.3608
▁recreation	-12.3608
▁snack	-12.3608
▁snicker	-12.3608
▁stunk	-12.3608
▁torrent	-12.3608
▁underwear	-12.3608
OOL	-12.3608
edophil	-12.3608
flexi	-12.3608
à	-12.3608
▁Arneric	-12.3608
▁Bacall	-12.3608
▁Calleia	-12.3608
▁Eagle	-12.3608
▁Grandpa	-12.3608
▁Huston	-12.3608
▁Inspired	-12.3608
▁Nighy	-12.3608
▁POW	-12.3608
▁Rinoa	-12.3608
▁Warhol	-12.3608
▁audio	-12.3608
▁crisp	-12.3608
▁epilep	-12.3608
▁goddess	-12.3608
▁illusion	-12.3608
▁ordeal	-12.3608
▁ramble	-12.3608
▁Beretta	-12.3608
▁Finlay	-12.3608
▁Hinds	-12.3608
▁Sounga	-12.3608
▁burial	-12.3608
▁casino	-12.3608
▁coloss	-12.3608
▁cooperat	-12.3608
▁crown	-12.3608
▁expans	-12.3608
▁garner	-12.3608
▁gruel	-12.3608
▁malice	-12.3608
▁parachut	-12.3608
▁sillie	-12.3608
▁sniff	-12.3608
▁synthe	-12.3608
▁(2000)	-12.3608
▁Garbo	-12.3608
▁Greece	-12.3608
▁farcical	-12.3608
▁ineffective	-12.3608
▁leering	-12.3608
▁pretense	-12.3608
▁solitude	-12.3608
▁unknowing	-12.3608
grammar	-12.3608
harmac	-12.3608
▁Carlito	-12.3608
▁Crisp	-12.3608
▁thrive	-12.3608
▁throne	-12.3608
Malley	-12.3608
▁BTW	-12.3608
▁Cairo	-12.3608
▁Flora	-12.3608
▁Punk	-12.3608
▁Recall	-12.3608
▁Zerbe	-12.3608
▁asshole	-12.3608
▁audaci	-12.3608
▁botch	-12.3608
▁implant	-12.3608
▁machete	-12.3608
▁nickel	-12.3608
▁robbing	-12.3608
▁slacker	-12.3608
▁Stamp	-12.3608
▁omissions	-12.3608
▁tramp	-12.3608
Connolly	-12.3608
▁Clown	-12.3608
▁Welsh	-12.3608
▁blink	-12.3608
▁request	-12.3608
▁supplie	-12.3608
▁Atlanta	-12.3608
▁Dreamworks	-12.3608
▁Estate	-12.3608
▁Lunge	-12.3608
▁Neeson	-12.3608
lgud	-12.3608
▁Kotto	-12.3608
▁Owl	-12.3608
▁reckon	-12.3608
▁rewind	-12.3608
▁rifle	-12.3608
▁valley	-12.3608
▁Aviv	-12.3608
Bluebeard	-12.3608
▁Coopersmith	-12.3608
▁LSD	-12.3608
▁prosecuti	-12.3608
▁warrior	-12.3608
▁Breslin	-12.3608
▁Emery	-12.3608
▁Helper	-12.3608
▁cousin	-12.3608
▁nanny	-12.3608
1966	-12.3609
ordello	-12.3609
▁Ashton	-12.3609
▁Bergen	-12.3609
▁Cleese	-12.3609
▁Dyke	-12.3609
▁dismay	-12.3609
▁illuminat	-12.3609
▁Exposed	-12.3609
▁Jadis	-12.3609
▁accomplishments	-12.3609
▁asteroid	-12.3609
▁drek	-12.3609
▁pervert	-12.3609
mpulsive	-12.3609
paraphrase	-12.3609
▁misfit	-12.3609
AMS	-12.3609
▁Dunst	-12.3609
▁Piece	-12.3609
▁Webb	-12.3609
ungeon	-12.3609
▁Lambs	-12.3609
▁whisper	-12.3609
RATING	-12.3609
odeon	-12.3609
▁drastic	-12.3609
Rochester	-12.3609
Complete	-12.3609
▁marijuana	-12.3609
▁proverb	-12.3609
▁radar	-12.3609
▁Stratas	-12.3609
▁saddest	-12.3609
tevin	-12.3609
▁Sherri	-12.3609
-11	-12.3609
▁endanger	-12.3609
▁satiriz	-12.3609
▁prompt	-12.3609
▁DID	-12.3609
▁Grier	-12.3609
▁rustic	-12.3609
▁suppress	-12.3609
▁Mamet	-12.3609
▁banter	-12.3609
▁parole	-12.3609
▁Drown	-12.3609
▁sneer	-12.3609
▁Jasper	-12.3609
▁Peaks	-12.3609
▁sassy	-12.3609
Munich	-12.3609
▁overnight	-12.3609
▁indelibl	-12.3609
▁Mental	-12.3609
Jericho	-12.3609
Perabo	-12.3609
▁Kingsley	-12.3609
▁saint	-12.3609
▁pontificati	-12.3609
▁reinforce	-12.3609
SAC	-12.3609
▁situat	-12.3609
▁Elvis	-12.3609
▁Posey	-12.3609
▁bobb	-12.3609
▁shelter	-12.3609
▁Busey	-12.3609
▁Serling	-12.3609
▁barrier	-12.3609
▁crust	-12.3609
▁discern	-12.3609
▁Crush	-12.3609
▁blessed	-12.3609
▁Cornel	-12.3609
▁lizard	-12.3609
▁hypnotize	-12.3609
▁hind	-12.3609
▁newcomer	-12.3609
▁hailed	-12.3609
▁swirl	-12.3609
SCTV	-12.3609
▁Sanders	-12.3609
▁impersonati	-12.3609
▁Theodor	-12.3609
▁heyday	-12.3609
▁smarm	-12.3609
▁£2	-12.3609
▁burrow	-12.3609
intai	-12.3609
▁Week	-12.3609
▁Osama	-12.3609
▁Ringel	-12.3609
artbreak	-12.3609
▁Lenin	-12.361
▁gym	-12.361
▁Stein	-12.361
▁tenants	-12.361
▁crazie	-12.361
▁fragil	-12.361
▁Corr	-12.361
▁advers	-12.361
▁Dude	-12.361
▁skydiv	-12.361
▁Susie	-12.361
Gemma	-12.361
▁detest	-12.361
▁chronolog	-12.361
▁feces	-12.361
▁anchor	-12.361
paradoxically	-12.361
Hoffman	-12.361
conquest	-12.361
feld	-12.361
atholic	-12.361
bathtub	-12.361
▁£1	-12.361
lamour	-12.361
asochist	-12.361
▁carniv	-12.361
▁persist	-12.361
Showgirls	-12.361
▁inclin	-12.3611
▁predator	-12.3611
▁Talk	-12.3611
Jaime	-12.3611
▁tangent	-12.3611
articula	-12.3611
graveyard	-12.3611
▁Memor	-12.3611
▁prolif	-12.3611
salesman	-12.3611
▁orient	-12.3611
Machine	-12.3612
axidermi	-12.3612
▁bulk	-12.3612
▁refut	-12.3612
ratio	-12.3613
▁revel	-12.3613
enchant	-12.3613
SPO	-12.3613
anguage	-12.3613
Munro	-12.3614
▁Hicks	-12.3615
▁Dickens	-12.3615
▁Meek	-12.3615
urgeon	-12.3615
Vlad	-12.3616
Barrel	-12.3616
roblem	-12.3617
rivate	-12.3617
▁Shya	-12.3617
Bryan	-12.3618
Atlant	-12.3618
zzard	-12.3618
▁Squi	-12.3619
▁fanatic	-12.3619
911,	-12.362
▁immerse	-12.362
}	-12.8608
ö	-12.8608
£	-13.8596
ü	-13.8608
{	-13.9153
́	-13.9154
“	-13.9155
[	-13.9156
ñ	-13.9157
=	-13.9158
j	-13.9159
